{
  "<PAD>": 0,
  "<UNK>": 1,
  "<BOS>": 2,
  "<EOS>": 3,
  "\u0000": 4,
  "\u0001": 5,
  "\u0002": 6,
  "\u0003": 7,
  "\u0004": 8,
  "\u0005": 9,
  "\u0006": 10,
  "\u0007": 11,
  "\b": 12,
  "\t": 13,
  "\n": 14,
  "\u000b": 15,
  "\f": 16,
  "\r": 17,
  "\u000e": 18,
  "\u000f": 19,
  "\u0010": 20,
  "\u0011": 21,
  "\u0012": 22,
  "\u0013": 23,
  "\u0014": 24,
  "\u0015": 25,
  "\u0016": 26,
  "\u0017": 27,
  "\u0018": 28,
  "\u0019": 29,
  "\u001a": 30,
  "\u001b": 31,
  "\u001c": 32,
  "\u001d": 33,
  "\u001e": 34,
  "\u001f": 35,
  " ": 36,
  "!": 37,
  "\"": 38,
  "#": 39,
  "$": 40,
  "%": 41,
  "&": 42,
  "'": 43,
  "(": 44,
  ")": 45,
  "*": 46,
  "+": 47,
  ",": 48,
  "-": 49,
  ".": 50,
  "/": 51,
  "0": 52,
  "1": 53,
  "2": 54,
  "3": 55,
  "4": 56,
  "5": 57,
  "6": 58,
  "7": 59,
  "8": 60,
  "9": 61,
  ":": 62,
  ";": 63,
  "<": 64,
  "=": 65,
  ">": 66,
  "?": 67,
  "@": 68,
  "A": 69,
  "B": 70,
  "C": 71,
  "D": 72,
  "E": 73,
  "F": 74,
  "G": 75,
  "H": 76,
  "I": 77,
  "J": 78,
  "K": 79,
  "L": 80,
  "M": 81,
  "N": 82,
  "O": 83,
  "P": 84,
  "Q": 85,
  "R": 86,
  "S": 87,
  "T": 88,
  "U": 89,
  "V": 90,
  "W": 91,
  "X": 92,
  "Y": 93,
  "Z": 94,
  "[": 95,
  "\\": 96,
  "]": 97,
  "^": 98,
  "_": 99,
  "`": 100,
  "a": 101,
  "b": 102,
  "c": 103,
  "d": 104,
  "e": 105,
  "f": 106,
  "g": 107,
  "h": 108,
  "i": 109,
  "j": 110,
  "k": 111,
  "l": 112,
  "m": 113,
  "n": 114,
  "o": 115,
  "p": 116,
  "q": 117,
  "r": 118,
  "s": 119,
  "t": 120,
  "u": 121,
  "v": 122,
  "w": 123,
  "x": 124,
  "y": 125,
  "z": 126,
  "{": 127,
  "|": 128,
  "}": 129,
  "~": 130,
  "": 131,
  "": 132,
  "": 133,
  "": 134,
  "": 135,
  "": 136,
  "": 137,
  "": 138,
  "": 139,
  "": 140,
  "": 141,
  "": 142,
  "": 143,
  "": 144,
  "": 145,
  "": 146,
  "": 147,
  "": 148,
  "": 149,
  "": 150,
  "": 151,
  "": 152,
  "": 153,
  "": 154,
  "": 155,
  "": 156,
  "": 157,
  "": 158,
  "": 159,
  "": 160,
  "": 161,
  "": 162,
  "": 163,
  " ": 164,
  "¡": 165,
  "¢": 166,
  "£": 167,
  "¤": 168,
  "¥": 169,
  "¦": 170,
  "§": 171,
  "¨": 172,
  "©": 173,
  "ª": 174,
  "«": 175,
  "¬": 176,
  "­": 177,
  "®": 178,
  "¯": 179,
  "°": 180,
  "±": 181,
  "²": 182,
  "³": 183,
  "´": 184,
  "µ": 185,
  "¶": 186,
  "·": 187,
  "¸": 188,
  "¹": 189,
  "º": 190,
  "»": 191,
  "¼": 192,
  "½": 193,
  "¾": 194,
  "¿": 195,
  "À": 196,
  "Á": 197,
  "Â": 198,
  "Ã": 199,
  "Ä": 200,
  "Å": 201,
  "Æ": 202,
  "Ç": 203,
  "È": 204,
  "É": 205,
  "Ê": 206,
  "Ë": 207,
  "Ì": 208,
  "Í": 209,
  "Î": 210,
  "Ï": 211,
  "Ð": 212,
  "Ñ": 213,
  "Ò": 214,
  "Ó": 215,
  "Ô": 216,
  "Õ": 217,
  "Ö": 218,
  "×": 219,
  "Ø": 220,
  "Ù": 221,
  "Ú": 222,
  "Û": 223,
  "Ü": 224,
  "Ý": 225,
  "Þ": 226,
  "ß": 227,
  "à": 228,
  "á": 229,
  "â": 230,
  "ã": 231,
  "ä": 232,
  "å": 233,
  "æ": 234,
  "ç": 235,
  "è": 236,
  "é": 237,
  "ê": 238,
  "ë": 239,
  "ì": 240,
  "í": 241,
  "î": 242,
  "ï": 243,
  "ð": 244,
  "ñ": 245,
  "ò": 246,
  "ó": 247,
  "ô": 248,
  "õ": 249,
  "ö": 250,
  "÷": 251,
  "ø": 252,
  "ù": 253,
  "ú": 254,
  "û": 255,
  "ü": 256,
  "ý": 257,
  "þ": 258,
  "ÿ": 259,
  " t": 260,
  " a": 261,
  "he": 262,
  "in": 263,
  "re": 264,
  "on": 265,
  " the": 266,
  "er": 267,
  " s": 268,
  "at": 269,
  " w": 270,
  " o": 271,
  "en": 272,
  " c": 273,
  "it": 274,
  "is": 275,
  "or": 276,
  "an": 277,
  "es": 278,
  " b": 279,
  "ed": 280,
  " p": 281,
  " f": 282,
  "ing": 283,
  "al": 284,
  "ou": 285,
  " an": 286,
  "ar": 287,
  " to": 288,
  " m": 289,
  " in": 290,
  " of": 291,
  " d": 292,
  " h": 293,
  "ic": 294,
  "as": 295,
  "\n\n": 296,
  " and": 297,
  " th": 298,
  "â": 299,
  "le": 300,
  "ion": 301,
  "om": 302,
  "ll": 303,
  "ent": 304,
  " l": 305,
  " re": 306,
  " n": 307,
  "st": 308,
  "ve": 309,
  " e": 310,
  "ly": 311,
  "ro": 312,
  " be": 313,
  " g": 314,
  "id": 315,
  ".\n\n": 316,
  "ac": 317,
  " T": 318,
  "ut": 319,
  "ot": 320,
  " I": 321,
  " that": 322,
  " is": 323,
  " S": 324,
  " on": 325,
  "im": 326,
  "ay": 327,
  "et": 328,
  " for": 329,
  "ig": 330,
  "se": 331,
  "ad": 332,
  "ow": 333,
  "am": 334,
  "â": 335,
  "ver": 336,
  " A": 337,
  " C": 338,
  "ct": 339,
  " u": 340,
  " st": 341,
  "ld": 342,
  "ur": 343,
  " it": 344,
  " M": 345,
  " he": 346,
  " y": 347,
  "ation": 348,
  "ir": 349,
  "ith": 350,
  "ce": 351,
  " wh": 352,
  "ol": 353,
  " we": 354,
  "ch": 355,
  "ter": 356,
  " as": 357,
  " with": 358,
  "il": 359,
  " B": 360,
  "ill": 361,
  "nd": 362,
  " con": 363,
  " was": 364,
  "if": 365,
  " P": 366,
  " (": 367,
  "ers": 368,
  "em": 369,
  "ke": 370,
  " you": 371,
  "her": 372,
  " H": 373,
  " ha": 374,
  " at": 375,
  " r": 376,
  "ate": 377,
  " pro": 378,
  " W": 379,
  "ag": 380,
  "ul": 381,
  " â": 382,
  " de": 383,
  " are": 384,
  "pp": 385,
  " D": 386,
  "ore": 387,
  " R": 388,
  " se": 389,
  " com": 390,
  "est": 391,
  " 1": 392,
  " The": 393,
  "um": 394,
  "ain": 395,
  "and": 396,
  "th": 397,
  "us": 398,
  "ri": 399,
  " 2": 400,
  "op": 401,
  "ist": 402,
  " ex": 403,
  "igh": 404,
  "rom": 405,
  "un": 406,
  "ab": 407,
  "ew": 408,
  "od": 409,
  " N": 410,
  "ive": 411,
  " have": 412,
  " v": 413,
  "os": 414,
  "ity": 415,
  "res": 416,
  "ort": 417,
  " not": 418,
  " or": 419,
  "'s": 420,
  "ould": 421,
  "ant": 422,
  "â": 423,
  " F": 424,
  "ess": 425,
  "oc": 426,
  "el": 427,
  " by": 428,
  " G": 429,
  "qu": 430,
  "ment": 431,
  " al": 432,
  " su": 433,
  "art": 434,
  "pe": 435,
  " this": 436,
  " E": 437,
  "nt": 438,
  " from": 439,
  "ies": 440,
  " L": 441,
  " sh": 442,
  "end": 443,
  "ight": 444,
  "ear": 445,
  "ally": 446,
  " ch": 447,
  "ust": 448,
  " ab": 449,
  " sa": 450,
  "ack": 451,
  "red": 452,
  "out": 453,
  "The": 454,
  "ard": 455,
  "ost": 456,
  "all": 457,
  "ap": 458,
  " has": 459,
  " O": 460,
  " le": 461,
  "ud": 462,
  "iv": 463,
  "ome": 464,
  "gh": 465,
  " tr": 466,
  " go": 467,
  " his": 468,
  " â": 469,
  " pl": 470,
  " J": 471,
  " wor": 472,
  " j": 473,
  " do": 474,
  "ast": 475,
  "fe": 476,
  "ge": 477,
  " they": 478,
  " \"": 479,
  "ak": 480,
  "our": 481,
  " but": 482,
  " can": 483,
  "rou": 484,
  " said": 485,
  "ich": 486,
  " all": 487,
  "ide": 488,
  " will": 489,
  "te": 490,
  "ok": 491,
  "ong": 492,
  " U": 493,
  " k": 494,
  " whe": 495,
  "pl": 496,
  "og": 497,
  "ie": 498,
  "ial": 499,
  "ans": 500,
  " who": 501,
  "ine": 502,
  "ther": 503,
  "ure": 504,
  "act": 505,
  " out": 506,
  " ne": 507,
  "pt": 508,
  " li": 509,
  " more": 510,
  "ame": 511,
  "one": 512,
  "ice": 513,
  " their": 514,
  "ated": 515,
  " comp": 516,
  " ad": 517,
  " up": 518,
  "ions": 519,
  " K": 520,
  "ous": 521,
  "ber": 522,
  " me": 523,
  " about": 524,
  " us": 525,
  " were": 526,
  "age": 527,
  "ra": 528,
  "ue": 529,
  " cont": 530,
  " one": 531,
  "ub": 532,
  " so": 533,
  "ime": 534,
  "are": 535,
  " im": 536,
  "ind": 537,
  "per": 538,
  " te": 539,
  " which": 540,
  " would": 541,
  "ia": 542,
  " had": 543,
  "ake": 544,
  "very": 545,
  "ign": 546,
  " cl": 547,
  " St": 548,
  "au": 549,
  "ff": 550,
  "iz": 551,
  " Th": 552,
  " int": 553,
  " been": 554,
  "cc": 555,
  " en": 556,
  "so": 557,
  " un": 558,
  " ag": 559,
  " per": 560,
  " off": 561,
  "ook": 562,
  " inc": 563,
  "ical": 564,
  "ary": 565,
  " pe": 566,
  " res": 567,
  " like": 568,
  " sc": 569,
  "ays": 570,
  " year": 571,
  " ev": 572,
  "ence": 573,
  "ip": 574,
  "port": 575,
  "ire": 576,
  "ations": 577,
  "ace": 578,
  " dis": 579,
  "ult": 580,
  " some": 581,
  "ose": 582,
  "able": 583,
  "int": 584,
  "ep": 585,
  " man": 586,
  " there": 587,
  "mer": 588,
  " other": 589,
  " In": 590,
  "ord": 591,
  "ry": 592,
  " app": 593,
  "ough": 594,
  "ren": 595,
  " than": 596,
  " work": 597,
  "ite": 598,
  "ople": 599,
  "own": 600,
  " part": 601,
  " new": 602,
  "ction": 603,
  "ress": 604,
  " bec": 605,
  "ount": 606,
  " ar": 607,
  " over": 608,
  " qu": 609,
  " sp": 610,
  "du": 611,
  "ance": 612,
  "ile": 613,
  "ond": 614,
  " them": 615,
  " also": 616,
  "ass": 617,
  "ble": 618,
  "ach": 619,
  "ase": 620,
  "ail": 621,
  "ick": 622,
  "orm": 623,
  " people": 624,
  " time": 625,
  "fter": 626,
  "ob": 627,
  "av": 628,
  "ory": 629,
  " get": 630,
  "ound": 631,
  "erv": 632,
  " It": 633,
  " Y": 634,
  " when": 635,
  "ree": 636,
  "ens": 637,
  " what": 638,
  " Ch": 639,
  "ition": 640,
  "ell": 641,
  " my": 642,
  ".â": 643,
  " if": 644,
  " V": 645,
  "ark": 646,
  "ink": 647,
  " any": 648,
  " just": 649,
  "ents": 650,
  " no": 651,
  " her": 652,
  " rec": 653,
  "reat": 654,
  "ru": 655,
  "ian": 656,
  "ors": 657,
  " into": 658,
  " your": 659,
  " -": 660,
  " kn": 661,
  "ons": 662,
  " tw": 663,
  " po": 664,
  "irst": 665,
  " co": 666,
  "ings": 667,
  "ause": 668,
  " its": 669,
  " our": 670,
  "ne": 671,
  "vel": 672,
  " 3": 673,
  "lic": 674,
  "ish": 675,
  "'t": 676,
  ",â": 677,
  " He": 678,
  "aw": 679,
  "vers": 680,
  " pre": 681,
  " pol": 682,
  "iss": 683,
  " she": 684,
  ".\"": 685,
  "ild": 686,
  "ang": 687,
  "ative": 688,
  " play": 689,
  " after": 690,
  "ates": 691,
  "â": 692,
  "rit": 693,
  "ious": 694,
  " ro": 695,
  "ft": 696,
  " bet": 697,
  " spe": 698,
  " first": 699,
  "ade": 700,
  "ces": 701,
  " could": 702,
  " pr": 703,
  " des": 704,
  "amp": 705,
  " him": 706,
  " acc": 707,
  "ident": 708,
  " how": 709,
  "ks": 710,
  " att": 711,
  "nder": 712,
  " cons": 713,
  " most": 714,
  " only": 715,
  " $": 716,
  " two": 717,
  "we": 718,
  "hed": 719,
  "li": 720,
  "ove": 721,
  "form": 722,
  "wn": 723,
  "oy": 724,
  "ater": 725,
  "ual": 726,
  "rent": 727,
  "ec": 728,
  "man": 729,
  "ov": 730,
  " because": 731,
  "lud": 732,
  " act": 733,
  " fe": 734,
  " dif": 735,
  " am": 736,
  " em": 737,
  "hing": 738,
  " did": 739,
  " bl": 740,
  " dec": 741,
  " back": 742,
  "xt": 743,
  "fect": 744,
  "uch": 745,
  "ced": 746,
  ",\"": 747,
  "ific": 748,
  " comm": 749,
  "ood": 750,
  "rough": 751,
  "ting": 752,
  " want": 753,
  "olog": 754,
  " inter": 755,
  "ning": 756,
  " add": 757,
  "ict": 758,
  "round": 759,
  "ect": 760,
  " sec": 761,
  " need": 762,
  " rel": 763,
  " years": 764,
  "day": 765,
  " under": 766,
  " 4": 767,
  " We": 768,
  " again": 769,
  "ublic": 770,
  " look": 771,
  "ull": 772,
  " now": 773,
  " make": 774,
  " supp": 775,
  " know": 776,
  ".â\n\n": 777,
  "ener": 778,
  "als": 779,
  "sel": 780,
  " think": 781,
  " very": 782,
  "oss": 783,
  "ath": 784,
  " Tr": 785,
  "ty": 786,
  " way": 787,
  " includ": 788,
  " inv": 789,
  " even": 790,
  " ind": 791,
  " [": 792,
  "In": 793,
  " these": 794,
  " see": 795,
  " don": 796,
  "pect": 797,
  " may": 798,
  "oll": 799,
  "ased": 800,
  " much": 801,
  " should": 802,
  "meric": 803,
  " use": 804,
  " 0": 805,
  "arg": 806,
  " imp": 807,
  "ise": 808,
  "),": 809,
  "ily": 810,
  "ational": 811,
  "old": 812,
  "ss": 813,
  " fl": 814,
  "ating": 815,
  " \\": 816,
  " every": 817,
  "fore": 818,
  " bu": 819,
  "iew": 820,
  "ck": 821,
  "Th": 822,
  " then": 823,
  " Un": 824,
  " stud": 825,
  " 5": 826,
  " New": 827,
  "ics": 828,
  "ject": 829,
  " being": 830,
  " And": 831,
  " This": 832,
  "ock": 833,
  " say": 834,
  " last": 835,
  " team": 836,
  " â": 837,
  " well": 838,
  ")\n\n": 839,
  " where": 840,
  "hen": 841,
  " does": 842,
  "ump": 843,
  " â": 844,
  " many": 845,
  " diffe": 846,
  "ert": 847,
  " reg": 848,
  "ange": 849,
  " show": 850,
  " going": 851,
  "urn": 852,
  " Americ": 853,
  " pres": 854,
  "ph": 855,
  "ason": 856,
  " sy": 857,
  " ass": 858,
  "vern": 859,
  " Re": 860,
  "row": 861,
  " call": 862,
  "lect": 863,
  "ont": 864,
  " But": 865,
  " down": 866,
  "ited": 867,
  " rem": 868,
  " bel": 869,
  " right": 870,
  "und": 871,
  "ied": 872,
  "ffect": 873,
  "ower": 874,
  " produ": 875,
  " those": 876,
  "roup": 877,
  " through": 878,
  ".\"\n\n": 879,
  "uring": 880,
  " point": 881,
  "ities": 882,
  "ng": 883,
  " long": 884,
  " def": 885,
  " start": 886,
  " mon": 887,
  " end": 888,
  "ism": 889,
  " ac": 890,
  "ince": 891,
  " report": 892,
  " ph": 893,
  "ork": 894,
  "rib": 895,
  "ven": 896,
  "ues": 897,
  "les": 898,
  " min": 899,
  "aking": 900,
  "oth": 901,
  " sm": 902,
  " hel": 903,
  "arch": 904,
  "ib": 905,
  "gr": 906,
  "oci": 907,
  "ually": 908,
  "land": 909,
  "ys": 910,
  "ular": 911,
  " wee": 912,
  ":\n\n": 913,
  " Wh": 914,
  " mem": 915,
  "ility": 916,
  "ible": 917,
  "ments": 918,
  "other": 919,
  "ner": 920,
  "It": 921,
  "omet": 922,
  "ween": 923,
  "illion": 924,
  " sub": 925,
  ").": 926,
  " sim": 927,
  "â": 928,
  "up": 929,
  " count": 930,
  "ix": 931,
  " br": 932,
  " such": 933,
  "ters": 934,
  "ement": 935,
  " disc": 936,
  " str": 937,
  " between": 938,
  "ful": 939,
  " before": 940,
  " group": 941,
  "its": 942,
  "itt": 943,
  " good": 944,
  "rest": 945,
  " says": 946,
  "oun": 947,
  "ward": 948,
  "erson": 949,
  " gu": 950,
  " sur": 951,
  " own": 952,
  " 6": 953,
  " still": 954,
  "tern": 955,
  "imes": 956,
  " ob": 957,
  "atch": 958,
  "ives": 959,
  "ife": 960,
  " govern": 961,
  "com": 962,
  "air": 963,
  "ets": 964,
  " fin": 965,
  " mod": 966,
  "stem": 967,
  " ear": 968,
  "ci": 969,
  "ax": 970,
  " med": 971,
  " here": 972,
  "cent": 973,
  " against": 974,
  "ever": 975,
  " inte": 976,
  " help": 977,
  "alk": 978,
  " ke": 979,
  " compan": 980,
  "ool": 981,
  "ists": 982,
  "ms": 983,
  " same": 984,
  "ts": 985,
  " made": 986,
  " while": 987,
  "enc": 988,
  " used": 989,
  " game": 990,
  "ah": 991,
  "min": 992,
  " found": 993,
  " offic": 994,
  " prov": 995,
  "ten": 996,
  "uss": 997,
  " three": 998,
  " =": 999,
  " though": 1000,
  ".[": 1001,
  " op": 1002,
  " take": 1003,
  "io": 1004,
  " world": 1005,
  " .": 1006,
  "ures": 1007,
  "ying": 1008,
  "cess": 1009,
  "way": 1010,
  " aut": 1011,
  " num": 1012,
  "cept": 1013,
  " ent": 1014,
  " really": 1015,
  " gr": 1016,
  "ars": 1017,
  " sign": 1018,
  " inst": 1019,
  " ser": 1020,
  "?\n\n": 1021,
  "We": 1022,
  "ank": 1023,
  " comple": 1024,
  " law": 1025,
  " high": 1026,
  "gan": 1027,
  "get": 1028,
  "uro": 1029,
  " ed": 1030,
  " col": 1031,
  " spec": 1032,
  " cr": 1033,
  " rep": 1034,
  " find": 1035,
  " state": 1036,
  "led": 1037,
  "ale": 1038,
  " around": 1039,
  " lead": 1040,
  " read": 1041,
  " Is": 1042,
  " ext": 1043,
  " hand": 1044,
  "self": 1045,
  " week": 1046,
  " exper": 1047,
  "ety": 1048,
  " support": 1049,
  "ollow": 1050,
  " exp": 1051,
  " somet": 1052,
  "ef": 1053,
  " set": 1054,
  "ving": 1055,
  " month": 1056,
  " You": 1057,
  " top": 1058,
  " char": 1059,
  "ution": 1060,
  " public": 1061,
  " expl": 1062,
  " fact": 1063,
  " run": 1064,
  " real": 1065,
  "ins": 1066,
  "hes": 1067,
  " trans": 1068,
  "ames": 1069,
  "pr": 1070,
  " system": 1071,
  "velop": 1072,
  " Te": 1073,
  "rence": 1074,
  " iss": 1075,
  "ather": 1076,
  "der": 1077,
  "ead": 1078,
  " They": 1079,
  " ins": 1080,
  "gg": 1081,
  " sl": 1082,
  "con": 1083,
  " resp": 1084,
  " Sh": 1085,
  "read": 1086,
  " lot": 1087,
  "ize": 1088,
  " requ": 1089,
  " effect": 1090,
  "akes": 1091,
  "co": 1092,
  " 7": 1093,
  "aj": 1094,
  "ically": 1095,
  " As": 1096,
  " too": 1097,
  " ter": 1098,
  "med": 1099,
  " &": 1100,
  " Trump": 1101,
  " Al": 1102,
  " government": 1103,
  "ared": 1104,
  " different": 1105,
  " ide": 1106,
  " ret": 1107,
  "ology": 1108,
  "ator": 1109,
  "alth": 1110,
  " fun": 1111,
  " Se": 1112,
  " happ": 1113,
  " person": 1114,
  "ling": 1115,
  "lear": 1116,
  " big": 1117,
  " day": 1118,
  " design": 1119,
  " gener": 1120,
  " conf": 1121,
  " rele": 1122,
  " since": 1123,
  " Ar": 1124,
  "ivers": 1125,
  "irect": 1126,
  "ved": 1127,
  " wom": 1128,
  "ision": 1129,
  "ave": 1130,
  "hip": 1131,
  " contin": 1132,
  " both": 1133,
  " cor": 1134,
  "str": 1135,
  "]\n\n": 1136,
  " vot": 1137,
  " Cl": 1138,
  "ient": 1139,
  " develop": 1140,
  " few": 1141,
  " det": 1142,
  " cur": 1143,
  " put": 1144,
  " result": 1145,
  " belie": 1146,
  " fr": 1147,
  " fil": 1148,
  " pat": 1149,
  " mark": 1150,
  "ense": 1151,
  "ines": 1152,
  "ized": 1153,
  "ric": 1154,
  "ash": 1155,
  " great": 1156,
  "ton": 1157,
  " US": 1158,
  " Le": 1159,
  " el": 1160,
  " percent": 1161,
  "br": 1162,
  " fam": 1163,
  "ute": 1164,
  " An": 1165,
  " poss": 1166,
  "ouse": 1167,
  " serv": 1168,
  " If": 1169,
  "chool": 1170,
  " ask": 1171,
  " during": 1172,
  " car": 1173,
  "ari": 1174,
  " Com": 1175,
  " head": 1176,
  " quest": 1177,
  " incre": 1178,
  " adv": 1179,
  " cour": 1180,
  "view": 1181,
  "ages": 1182,
  " bo": 1183,
  " test": 1184,
  " got": 1185,
  " cre": 1186,
  " dep": 1187,
  " 9": 1188,
  "ants": 1189,
  " dem": 1190,
  "els": 1191,
  " Fr": 1192,
  " inf": 1193,
  "ploy": 1194,
  "ired": 1195,
  " told": 1196,
  "..": 1197,
  " follow": 1198,
  "thing": 1199,
  "the": 1200,
  " polit": 1201,
  "ording": 1202,
  " 8": 1203,
  " war": 1204,
  "rem": 1205,
  " cent": 1206,
  " life": 1207,
  " appro": 1208,
  "ience": 1209,
  " Bl": 1210,
  "This": 1211,
  " cap": 1212,
  "ably": 1213,
  "ier": 1214,
  " things": 1215,
  "Wh": 1216,
  "ices": 1217,
  "ross": 1218,
  " less": 1219,
  " So": 1220,
  " ty": 1221,
  "ody": 1222,
  "ret": 1223,
  " Sc": 1224,
  " another": 1225,
  "ves": 1226,
  "orn": 1227,
  " best": 1228,
  " next": 1229,
  "ases": 1230,
  " might": 1231,
  "chn": 1232,
  " open": 1233,
  " That": 1234,
  " import": 1235,
  "anc": 1236,
  " contro": 1237,
  "less": 1238,
  " come": 1239,
  " Go": 1240,
  "ness": 1241,
  " art": 1242,
  "ering": 1243,
  " Pro": 1244,
  ");": 1245,
  "ield": 1246,
  "ned": 1247,
  " cost": 1248,
  " second": 1249,
  " For": 1250,
  " each": 1251,
  " De": 1252,
  "ik": 1253,
  " rese": 1254,
  " ref": 1255,
  "oh": 1256,
  " commun": 1257,
  "aim": 1258,
  "osed": 1259,
  " power": 1260,
  "be": 1261,
  "arge": 1262,
  " There": 1263,
  " something": 1264,
  " pri": 1265,
  " stat": 1266,
  "az": 1267,
  " main": 1268,
  " partic": 1269,
  "ittle": 1270,
  " che": 1271,
  "ple": 1272,
  " stand": 1273,
  " met": 1274,
  " including": 1275,
  " company": 1276,
  "inal": 1277,
  "uman": 1278,
  "ately": 1279,
  " â": 1280,
  " av": 1281,
  "He": 1282,
  " invest": 1283,
  "acks": 1284,
  " million": 1285,
  " pay": 1286,
  "app": 1287,
  "But": 1288,
  " direct": 1289,
  " better": 1290,
  "oot": 1291,
  "ention": 1292,
  "uc": 1293,
  " loc": 1294,
  " job": 1295,
  "vious": 1296,
  " ann": 1297,
  " Con": 1298,
  "ends": 1299,
  " never": 1300,
  " four": 1301,
  " dr": 1302,
  " case": 1303,
  "urope": 1304,
  " seem": 1305,
  " tri": 1306,
  " small": 1307,
  " post": 1308,
  "ency": 1309,
  " conc": 1310,
  "bers": 1311,
  " camp": 1312,
  "ains": 1313,
  " allow": 1314,
  " thing": 1315,
  " Ind": 1316,
  " proble": 1317,
  " full": 1318,
  " home": 1319,
  " mat": 1320,
  " leg": 1321,
  " care": 1322,
  " far": 1323,
  "ained": 1324,
  " hard": 1325,
  " list": 1326,
  " opp": 1327,
  " news": 1328,
  " child": 1329,
  " using": 1330,
  "line": 1331,
  " val": 1332,
  "ined": 1333,
  " number": 1334,
  "iness": 1335,
  " build": 1336,
  "ina": 1337,
  " Ph": 1338,
  "ished": 1339,
  "gram": 1340,
  " pop": 1341,
  "rat": 1342,
  "leg": 1343,
  "gy": 1344,
  "oney": 1345,
  " plan": 1346,
  " American": 1347,
  "reen": 1348,
  " Z": 1349,
  "ature": 1350,
  "ways": 1351,
  "ital": 1352,
  " little": 1353,
  " pos": 1354,
  " How": 1355,
  " without": 1356,
  " dist": 1357,
  "ger": 1358,
  " large": 1359,
  " book": 1360,
  " prof": 1361,
  " interest": 1362,
  " techn": 1363,
  " mov": 1364,
  " ele": 1365,
  " police": 1366,
  "ised": 1367,
  "ption": 1368,
  " charac": 1369,
  "ush": 1370,
  " gl": 1371,
  "ata": 1372,
  " doesn": 1373,
  " school": 1374,
  " const": 1375,
  " didn": 1376,
  "ruct": 1377,
  "ajor": 1378,
  " pass": 1379,
  "orth": 1380,
  "conom": 1381,
  " feel": 1382,
  " turn": 1383,
  " change": 1384,
  " recent": 1385,
  "'re": 1386,
  "ait": 1387,
  "rap": 1388,
  " sk": 1389,
  "ered": 1390,
  " clear": 1391,
  "iving": 1392,
  "ract": 1393,
  " perform": 1394,
  " bro": 1395,
  " Q": 1396,
  "ex": 1397,
  "ards": 1398,
  " writ": 1399,
  " bus": 1400,
  " claim": 1401,
  "ird": 1402,
  " '": 1403,
  "ted": 1404,
  " beh": 1405,
  " process": 1406,
  "ertain": 1407,
  " expect": 1408,
  " sit": 1409,
  "ued": 1410,
  " level": 1411,
  " let": 1412,
  "here": 1413,
  "att": 1414,
  "used": 1415,
  " win": 1416,
  "ample": 1417,
  " prom": 1418,
  "ware": 1419,
  " talk": 1420,
  " form": 1421,
  " season": 1422,
  " bre": 1423,
  " important": 1424,
  "aff": 1425,
  "outh": 1426,
  " left": 1427,
  " order": 1428,
  " place": 1429,
  " water": 1430,
  " unt": 1431,
  " Mar": 1432,
  "ama": 1433,
  " near": 1434,
  " product": 1435,
  " keep": 1436,
  "ided": 1437,
  "idence": 1438,
  " money": 1439,
  " program": 1440,
  "ode": 1441,
  "ogle": 1442,
  "ern": 1443,
  " past": 1444,
  " Ad": 1445,
  " arg": 1446,
  "to": 1447,
  "hor": 1448,
  " enough": 1449,
  "ference": 1450,
  " inform": 1451,
  "urity": 1452,
  " score": 1453,
  " vide": 1454,
  " eas": 1455,
  " chang": 1456,
  "aining": 1457,
  " Ob": 1458,
  " Can": 1459,
  " move": 1460,
  " hig": 1461,
  "--": 1462,
  " es": 1463,
  " health": 1464,
  " air": 1465,
  " project": 1466,
  " United": 1467,
  "ands": 1468,
  " country": 1469,
  " called": 1470,
  " No": 1471,
  "ality": 1472,
  "ients": 1473,
  "ohn": 1474,
  " sol": 1475,
  "ug": 1476,
  " non": 1477,
  " always": 1478,
  " major": 1479,
  "ission": 1480,
  " est": 1481,
  "ior": 1482,
  " Europe": 1483,
  " tax": 1484,
  " Cons": 1485,
  " oper": 1486,
  " least": 1487,
  " dri": 1488,
  "ready": 1489,
  " Ex": 1490,
  " Man": 1491,
  " happen": 1492,
  " current": 1493,
  " Rep": 1494,
  " story": 1495,
  "side": 1496,
  "work": 1497,
  "ervative": 1498,
  " wr": 1499,
  "wit": 1500,
  " often": 1501,
  " Chr": 1502,
  " able": 1503,
  " organ": 1504,
  "ured": 1505,
  "ral": 1506,
  " pur": 1507,
  " women": 1508,
  "sy": 1509,
  "ox": 1510,
  " --": 1511,
  "acy": 1512,
  " why": 1513,
  " econom": 1514,
  " free": 1515,
  " rece": 1516,
  " away": 1517,
  "iven": 1518,
  "ocial": 1519,
  "une": 1520,
  "crib": 1521,
  "cl": 1522,
  "ified": 1523,
  "iron": 1524,
  " eff": 1525,
  "ides": 1526,
  "iversity": 1527,
  "ending": 1528,
  " working": 1529,
  "ister": 1530,
  "erman": 1531,
  " Med": 1532,
  " city": 1533,
  " must": 1534,
  " won": 1535,
  "stand": 1536,
  " hop": 1537,
  " young": 1538,
  " Cell": 1539,
  " already": 1540,
  " May": 1541,
  " hist": 1542,
  "uck": 1543,
  " later": 1544,
  "ising": 1545,
  " until": 1546,
  "most": 1547,
  " kind": 1548,
  "alf": 1549,
  " old": 1550,
  " employ": 1551,
  " line": 1552,
  "raft": 1553,
  "by": 1554,
  "ams": 1555,
  "ries": 1556,
  " sing": 1557,
  "eral": 1558,
  " kill": 1559,
  " actually": 1560,
  " class": 1561,
  " president": 1562,
  "As": 1563,
  " Res": 1564,
  " deal": 1565,
  " fund": 1566,
  "ensive": 1567,
  "ials": 1568,
  " view": 1569,
  " prop": 1570,
  " At": 1571,
  "gin": 1572,
  " sever": 1573,
  " name": 1574,
  "que": 1575,
  "ration": 1576,
  "iver": 1577,
  "aid": 1578,
  "for": 1579,
  " Google": 1580,
  "atur": 1581,
  "aps": 1582,
  " State": 1583,
  " family": 1584,
  " edit": 1585,
  "ians": 1586,
  "ott": 1587,
  " ve": 1588,
  "aign": 1589,
  "AS": 1590,
  " Pl": 1591,
  " likely": 1592,
  " pot": 1593,
  "ubl": 1594,
  " fri": 1595,
  " z": 1596,
  " having": 1597,
  "bs": 1598,
  " ca": 1599,
  " Sy": 1600,
  " MP": 1601,
  " several": 1602,
  " John": 1603,
  " word": 1604,
  " example": 1605,
  " On": 1606,
  " She": 1607,
  "ociety": 1608,
  " market": 1609,
  " Col": 1610,
  " bit": 1611,
  " prote": 1612,
  "BC": 1613,
  "pped": 1614,
  "ilar": 1615,
  "aring": 1616,
  " York": 1617,
  " question": 1618,
  " strong": 1619,
  "ended": 1620,
  " vers": 1621,
  " grow": 1622,
  " research": 1623,
  " mean": 1624,
  " light": 1625,
  " tell": 1626,
  "imate": 1627,
  " polic": 1628,
  " vis": 1629,
  " mil": 1630,
  " par": 1631,
  " making": 1632,
  "icle": 1633,
  "ived": 1634,
  " Team": 1635,
  " Or": 1636,
  "ional": 1637,
  " data": 1638,
  " ,": 1639,
  " days": 1640,
  " equ": 1641,
  " prob": 1642,
  "â": 1643,
  " means": 1644,
  " Stem": 1645,
  "ially": 1646,
  "aces": 1647,
  " dom": 1648,
  "augh": 1649,
  " occ": 1650,
  " months": 1651,
  "St": 1652,
  " points": 1653,
  " complex": 1654,
  " whether": 1655,
  "oint": 1656,
  " doing": 1657,
  " event": 1658,
  "ney": 1659,
  "year": 1660,
  "lf": 1661,
  " media": 1662,
  " Dem": 1663,
  " fight": 1664,
  " Be": 1665,
  " deb": 1666,
  " human": 1667,
  "uture": 1668,
  " Min": 1669,
  " information": 1670,
  " night": 1671,
  " asked": 1672,
  " campaign": 1673,
  "rences": 1674,
  " control": 1675,
  "There": 1676,
  " took": 1677,
  " give": 1678,
  " character": 1679,
  " crit": 1680,
  "eng": 1681,
  "If": 1682,
  " bas": 1683,
  "duct": 1684,
  " across": 1685,
  " ever": 1686,
  "ither": 1687,
  " business": 1688,
  "ony": 1689,
  " sure": 1690,
  " hold": 1691,
  " become": 1692,
  "ember": 1693,
  "uff": 1694,
  " Mc": 1695,
  "wh": 1696,
  " intern": 1697,
  " appear": 1698,
  "lo": 1699,
  "son": 1700,
  " possible": 1701,
  " Sp": 1702,
  " Brit": 1703,
  "viron": 1704,
  " manag": 1705,
  "verage": 1706,
  "ggest": 1707,
  "artment": 1708,
  " ben": 1709,
  " Dr": 1710,
  " \\(": 1711,
  " came": 1712,
  " five": 1713,
  " Republic": 1714,
  " Mr": 1715,
  "empt": 1716,
  " addition": 1717,
  " anal": 1718,
  " typ": 1719,
  "ots": 1720,
  "orp": 1721,
  "ury": 1722,
  " rest": 1723,
  " times": 1724,
  " reason": 1725,
  " invol": 1726,
  " political": 1727,
  "ones": 1728,
  " makes": 1729,
  " video": 1730,
  ".,": 1731,
  " eng": 1732,
  " orig": 1733,
  " App": 1734,
  " la": 1735,
  " present": 1736,
  "ev": 1737,
  "ization": 1738,
  "not": 1739,
  "ales": 1740,
  "ief": 1741,
  " cond": 1742,
  " announ": 1743,
  " along": 1744,
  " once": 1745,
  "sh": 1746,
  "alif": 1747,
  "ley": 1748,
  "ocrat": 1749,
  " suggest": 1750,
  "'ve": 1751,
  "And": 1752,
  " getting": 1753,
  " ident": 1754,
  " Canad": 1755,
  "â¦": 1756,
  "ny": 1757,
  " Car": 1758,
  "itive": 1759,
  " among": 1760,
  " trying": 1761,
  " account": 1762,
  "che": 1763,
  " games": 1764,
  " problem": 1765,
  "aken": 1766,
  " men": 1767,
  "resident": 1768,
  "ortun": 1769,
  " sour": 1770,
  "vironment": 1771,
  " former": 1772,
  " based": 1773,
  " done": 1774,
  "idd": 1775,
  " future": 1776,
  "ober": 1777,
  " imm": 1778,
  "ential": 1779,
  " today": 1780,
  " started": 1781,
  " When": 1782,
  " All": 1783,
  "ched": 1784,
  "urs": 1785,
  " seen": 1786,
  "ories": 1787,
  " low": 1788,
  "arent": 1789,
  " activ": 1790,
  "'m": 1791,
  " study": 1792,
  "ccess": 1793,
  " according": 1794,
  "mb": 1795,
  "eb": 1796,
  " relig": 1797,
  ").\n\n": 1798,
  " early": 1799,
  " Eng": 1800,
  " try": 1801,
  "ison": 1802,
  "arr": 1803,
  " idea": 1804,
  " meas": 1805,
  "ability": 1806,
  " repres": 1807,
  " within": 1808,
  " discuss": 1809,
  "rop": 1810,
  " Co": 1811,
  " went": 1812,
  " indust": 1813,
  " Comm": 1814,
  "ror": 1815,
  "ster": 1816,
  " known": 1817,
  " Ste": 1818,
  " pract": 1819,
  "mber": 1820,
  " believe": 1821,
  " particular": 1822,
  "oto": 1823,
  " players": 1824,
  " certain": 1825,
  "orld": 1826,
  " higher": 1827,
  "ider": 1828,
  " Cent": 1829,
  " course": 1830,
  "though": 1831,
  " someone": 1832,
  "ivid": 1833,
  "nes": 1834,
  "ape": 1835,
  " isn": 1836,
  " Dav": 1837,
  "ument": 1838,
  "iff": 1839,
  " return": 1840,
  "itions": 1841,
  "vert": 1842,
  "ike": 1843,
  " children": 1844,
  " vari": 1845,
  " press": 1846,
  " sex": 1847,
  "AR": 1848,
  " issue": 1849,
  "vent": 1850,
  "ails": 1851,
  " North": 1852,
  " previous": 1853,
  "imum": 1854,
  " avail": 1855,
  " evidence": 1856,
  " profess": 1857,
  " signific": 1858,
  "osp": 1859,
  "urther": 1860,
  " investig": 1861,
  " treat": 1862,
  " thought": 1863,
  " death": 1864,
  " Bro": 1865,
  "lam": 1866,
  " record": 1867,
  " looking": 1868,
  "ulation": 1869,
  " fre": 1870,
  " Br": 1871,
  "ederal": 1872,
  " quick": 1873,
  "etwork": 1874,
  " security": 1875,
  " foc": 1876,
  " German": 1877,
  "let": 1878,
  " priv": 1879,
  " er": 1880,
  " community": 1881,
  " function": 1882,
  "ctor": 1883,
  " toget": 1884,
  " together": 1885,
  " single": 1886,
  " fore": 1887,
  "ien": 1888,
  "ero": 1889,
  "back": 1890,
  " comes": 1891,
  " cho": 1892,
  " author": 1893,
  " charg": 1894,
  " tem": 1895,
  " social": 1896,
  "iol": 1897,
  "aper": 1898,
  " probably": 1899,
  " What": 1900,
  " almost": 1901,
  " Pr": 1902,
  " vol": 1903,
  " fig": 1904,
  " Ass": 1905,
  "For": 1906,
  " President": 1907,
  "apan": 1908,
  " cut": 1909,
  "ai": 1910,
  "uation": 1911,
  " Democrat": 1912,
  " ant": 1913,
  " close": 1914,
  "lement": 1915,
  "atives": 1916,
  " Christ": 1917,
  "text": 1918,
  " effort": 1919,
  " States": 1920,
  " understand": 1921,
  "mat": 1922,
  " results": 1923,
  " body": 1924,
  " anything": 1925,
  " fall": 1926,
  "You": 1927,
  " Obama": 1928,
  " gen": 1929,
  " members": 1930,
  " repl": 1931,
  "ourn": 1932,
  "ium": 1933,
  " threat": 1934,
  " reported": 1935,
  " short": 1936,
  " lear": 1937,
  " Russ": 1938,
  "ague": 1939,
  " series": 1940,
  " University": 1941,
  "sych": 1942,
  " tot": 1943,
  " Cong": 1944,
  "ane": 1945,
  " del": 1946,
  " yet": 1947,
  "cially": 1948,
  " side": 1949,
  "unch": 1950,
  "cher": 1951,
  " Reg": 1952,
  " else": 1953,
  " publ": 1954,
  " hour": 1955,
  "TL": 1956,
  " super": 1957,
  "aul": 1958,
  " studies": 1959,
  "ming": 1960,
  " However": 1961,
  " others": 1962,
  " diff": 1963,
  " feat": 1964,
  "ustom": 1965,
  "yc": 1966,
  " individ": 1967,
  "lin": 1968,
  " memory": 1969,
  "rote": 1970,
  " given": 1971,
  "rael": 1972,
  " saying": 1973,
  " face": 1974,
  " similar": 1975,
  " describ": 1976,
  "onse": 1977,
  "ER": 1978,
  "lu": 1979,
  " One": 1980,
  " special": 1981,
  "raw": 1982,
  " mom": 1983,
  " dev": 1984,
  "icine": 1985,
  "][": 1986,
  " lim": 1987,
  " mus": 1988,
  " rather": 1989,
  " available": 1990,
  " exist": 1991,
  " entire": 1992,
  " patients": 1993,
  "ination": 1994,
  "ald": 1995,
  " mind": 1996,
  "gress": 1997,
  " fail": 1998,
  " released": 1999,
  " Inst": 2000,
  "eal": 2001,
  " cell": 2002,
  " proper": 2003,
  "rew": 2004,
  "inc": 2005,
  " ago": 2006,
  "go": 2007,
  "tt": 2008,
  "iter": 2009,
  " lab": 2010,
  " local": 2011,
  " sent": 2012,
  "aster": 2013,
  "utes": 2014,
  "SS": 2015,
  " significant": 2016,
  " environment": 2017,
  "earch": 2018,
  " elect": 2019,
  " groups": 2020,
  " bad": 2021,
  " jo": 2022,
  " Japan": 2023,
  " billion": 2024,
  "irc": 2025,
  " i": 2026,
  "ged": 2027,
  "oid": 2028,
  " gun": 2029,
  " fire": 2030,
  "ograp": 2031,
  "par": 2032,
  " added": 2033,
  " Aust": 2034,
  " House": 2035,
  "ament": 2036,
  " Gr": 2037,
  " obs": 2038,
  " following": 2039,
  " area": 2040,
  " fac": 2041,
  " #": 2042,
  " di": 2043,
  "oon": 2044,
  " half": 2045,
  "ply": 2046,
  " attack": 2047,
  " taking": 2048,
  "ances": 2049,
  " larg": 2050,
  " either": 2051,
  " America": 2052,
  "reme": 2053,
  " Pol": 2054,
  "reg": 2055,
  "irt": 2056,
  "ological": 2057,
  "ole": 2058,
  "ung": 2059,
  " redu": 2060,
  " et": 2061,
  "uly": 2062,
  " Conservative": 2063,
  " fav": 2064,
  " sum": 2065,
  "pping": 2066,
  " third": 2067,
  "ream": 2068,
  " meet": 2069,
  "witter": 2070,
  " pret": 2071,
  "lim": 2072,
  " film": 2073,
  "ler": 2074,
  "umb": 2075,
  " land": 2076,
  " aff": 2077,
  " viol": 2078,
  "What": 2079,
  " sound": 2080,
  "When": 2081,
  " wasn": 2082,
  " comb": 2083,
  "On": 2084,
  " individual": 2085,
  " specific": 2086,
  "!\n\n": 2087,
  "ators": 2088,
  "head": 2089,
  "book": 2090,
  " liber": 2091,
  " experience": 2092,
  " mult": 2093,
  " self": 2094,
  " love": 2095,
  " instead": 2096,
  " impro": 2097,
  " bring": 2098,
  "fer": 2099,
  " represent": 2100,
  " response": 2101,
  "ron": 2102,
  "ctions": 2103,
  "icult": 2104,
  " hit": 2105,
  " Bar": 2106,
  "ume": 2107,
  " creat": 2108,
  " init": 2109,
  " success": 2110,
  " role": 2111,
  " exec": 2112,
  " soft": 2113,
  "rel": 2114,
  " include": 2115,
  " states": 2116,
  " wrote": 2117,
  "oub": 2118,
  " white": 2119,
  " due": 2120,
  " sw": 2121,
  " targ": 2122,
  " Sec": 2123,
  "obal": 2124,
  " taken": 2125,
  "do": 2126,
  "pro": 2127,
  " space": 2128,
  " World": 2129,
  " Congress": 2130,
  "aged": 2131,
  " front": 2132,
  " watch": 2133,
  "like": 2134,
  "selves": 2135,
  " conne": 2136,
  " pick": 2137,
  "ball": 2138,
  " complete": 2139,
  " below": 2140,
  " relations": 2141,
  "yn": 2142,
  " amount": 2143,
  " Fl": 2144,
  "arm": 2145,
  "ades": 2146,
  "hern": 2147,
  " coming": 2148,
  " attempt": 2149,
  " wanted": 2150,
  "asing": 2151,
  "over": 2152,
  " Ge": 2153,
  " agre": 2154,
  " needs": 2155,
  " behind": 2156,
  "inton": 2157,
  "ech": 2158,
  " Will": 2159,
  "ann": 2160,
  "ression": 2161,
  " everything": 2162,
  " rul": 2163,
  " national": 2164,
  " teams": 2165,
  "ps": 2166,
  "ask": 2167,
  " dam": 2168,
  " South": 2169,
  " whole": 2170,
  "ogn": 2171,
  " Research": 2172,
  "ese": 2173,
  " companies": 2174,
  " review": 2175,
  " These": 2176,
  " British": 2177,
  "aliforn": 2178,
  " history": 2179,
  " China": 2180,
  "minist": 2181,
  "ude": 2182,
  " Was": 2183,
  "of": 2184,
  "So": 2185,
  "ively": 2186,
  " cult": 2187,
  "ored": 2188,
  "set": 2189,
  " party": 2190,
  "val": 2191,
  "ully": 2192,
  " access": 2193,
  " version": 2194,
  " tre": 2195,
  " host": 2196,
  "ene": 2197,
  " mag": 2198,
  "sw": 2199,
  "atic": 2200,
  " respons": 2201,
  " countries": 2202,
  " issues": 2203,
  "omb": 2204,
  " general": 2205,
  " miss": 2206,
  " nothing": 2207,
  "arter": 2208,
  " City": 2209,
  "use": 2210,
  " ra": 2211,
  " federal": 2212,
  "my": 2213,
  " prim": 2214,
  " pretty": 2215,
  " Don": 2216,
  " enc": 2217,
  "pecially": 2218,
  " His": 2219,
  " age": 2220,
  "order": 2221,
  " benef": 2222,
  " simply": 2223,
  "lier": 2224,
  " further": 2225,
  " saw": 2226,
  " however": 2227,
  " Not": 2228,
  " red": 2229,
  " industry": 2230,
  "ights": 2231,
  " cop": 2232,
  " Jan": 2233,
  " Israel": 2234,
  " scient": 2235,
  " \\)": 2236,
  " Just": 2237,
  " six": 2238,
  " Intern": 2239,
  " sus": 2240,
  "olution": 2241,
  "action": 2242,
  "That": 2243,
  " rad": 2244,
  "off": 2245,
  " â": 2246,
  "Ã©": 2247,
  " matter": 2248,
  " difficult": 2249,
  " exc": 2250,
  "ery": 2251,
  "ste": 2252,
  " live": 2253,
  " position": 2254,
  " service": 2255,
  " player": 2256,
  " doc": 2257,
  " decision": 2258,
  "ribut": 2259,
  " policy": 2260,
  " opt": 2261,
  "uary": 2262,
  " running": 2263,
  " vict": 2264,
  " field": 2265,
  " tra": 2266,
  " Part": 2267,
  " key": 2268,
  " Americans": 2269,
  " conv": 2270,
  " custom": 2271,
  " National": 2272,
  "anks": 2273,
  " playing": 2274,
  " Society": 2275,
  "su": 2276,
  "oring": 2277,
  " development": 2278,
  "lling": 2279,
  " applic": 2280,
  " phys": 2281,
  " To": 2282,
  " break": 2283,
  " colle": 2284,
  " port": 2285,
  " office": 2286,
  " woman": 2287,
  " toward": 2288,
  " performance": 2289,
  " meth": 2290,
  "irl": 2291,
  " prot": 2292,
  "ites": 2293,
  "ault": 2294,
  " abs": 2295,
  " works": 2296,
  "ift": 2297,
  "iting": 2298,
  " War": 2299,
  "oe": 2300,
  " increase": 2301,
  "ify": 2302,
  " circ": 2303,
  " mor": 2304,
  "ival": 2305,
  " forward": 2306,
  " outside": 2307,
  "ural": 2308,
  "me": 2309,
  "asons": 2310,
  "issue": 2311,
  " seems": 2312,
  "ibility": 2313,
  " News": 2314,
  "IS": 2315,
  " lo": 2316,
  " room": 2317,
  " technology": 2318,
  " building": 2319,
  " begin": 2320,
  "urch": 2321,
  " true": 2322,
  "istic": 2323,
  "now": 2324,
  " interview": 2325,
  " friends": 2326,
  "ograph": 2327,
  " protect": 2328,
  " alloc": 2329,
  "ently": 2330,
  " UK": 2331,
  " trad": 2332,
  "eff": 2333,
  " hy": 2334,
  "pril": 2335,
  "fr": 2336,
  " online": 2337,
  " average": 2338,
  " educ": 2339,
  " quite": 2340,
  " neg": 2341,
  " step": 2342,
  " Clinton": 2343,
  " compet": 2344,
  " cou": 2345,
  " content": 2346,
  " Im": 2347,
  " minimum": 2348,
  " ris": 2349,
  " announced": 2350,
  " especially": 2351,
  " Kore": 2352,
  " changes": 2353,
  "ring": 2354,
  "ilt": 2355,
  " contain": 2356,
  " rights": 2357,
  "amed": 2358,
  " Ed": 2359,
  " complexity": 2360,
  " black": 2361,
  " election": 2362,
  " himself": 2363,
  " bill": 2364,
  " After": 2365,
  "ee": 2366,
  " provide": 2367,
  "ateg": 2368,
  "omm": 2369,
  " release": 2370,
  " article": 2371,
  " conference": 2372,
  " Am": 2373,
  " Medicine": 2374,
  " expected": 2375,
  " race": 2376,
  "Ad": 2377,
  "ows": 2378,
  "medi": 2379,
  "igence": 2380,
  "enn": 2381,
  " Lab": 2382,
  "ender": 2383,
  " value": 2384,
  "idge": 2385,
  " staff": 2386,
  " West": 2387,
  "itted": 2388,
  " Dep": 2389,
  " lat": 2390,
  " ability": 2391,
  "iddle": 2392,
  " Californ": 2393,
  "'ll": 2394,
  " ]\n\n": 2395,
  "": 2396,
  "arth": 2397,
  "iday": 2398,
  " chall": 2399,
  "elt": 2400,
  "osing": 2401,
  " mis": 2402,
  " April": 2403,
  "ids": 2404,
  " milit": 2405,
  " My": 2406,
  "aced": 2407,
  " longer": 2408,
  " conserv": 2409,
  " mass": 2410,
  "mit": 2411,
  "iment": 2412,
  "rug": 2413,
  "ached": 2414,
  "ondon": 2415,
  " questions": 2416,
  " above": 2417,
  " ce": 2418,
  " Canada": 2419,
  " contract": 2420,
  "stein": 2421,
  " With": 2422,
  " statement": 2423,
  " began": 2424,
  "ners": 2425,
  " deter": 2426,
  " common": 2427,
  " psych": 2428,
  " shows": 2429,
  " quickly": 2430,
  " wrong": 2431,
  "omes": 2432,
  "reet": 2433,
  "Al": 2434,
  "sp": 2435,
  " var": 2436,
  " tit": 2437,
  " item": 2438,
  " mess": 2439,
  " potential": 2440,
  " themselves": 2441,
  "sec": 2442,
  "cing": 2443,
  "ires": 2444,
  " Stud": 2445,
  "ches": 2446,
  "key": 2447,
  " needed": 2448,
  " +": 2449,
  "ccording": 2450,
  " require": 2451,
  " site": 2452,
  " ill": 2453,
  " Mich": 2454,
  " div": 2455,
  " ground": 2456,
  " total": 2457,
  " effects": 2458,
  " bi": 2459,
  "ociation": 2460,
  "uge": 2461,
  "haps": 2462,
  " exact": 2463,
  " execut": 2464,
  " itself": 2465,
  " implement": 2466,
  "ried": 2467,
  " involved": 2468,
  "enerative": 2469,
  " Gu": 2470,
  " officials": 2471,
  "pite": 2472,
  " published": 2473,
  " software": 2474,
  " object": 2475,
  "aint": 2476,
  " mar": 2477,
  "isc": 2478,
  " original": 2479,
  " fir": 2480,
  " European": 2481,
  " stri": 2482,
  " Red": 2483,
  "ressed": 2484,
  "ael": 2485,
  " arrest": 2486,
  " heart": 2487,
  " London": 2488,
  "load": 2489,
  " dest": 2490,
  " create": 2491,
  " analys": 2492,
  " search": 2493,
  " related": 2494,
  " ep": 2495,
  " June": 2496,
  " words": 2497,
  " food": 2498,
  " legal": 2499,
  "ili": 2500,
  " March": 2501,
  " favor": 2502,
  " fix": 2503,
  " jobs": 2504,
  " worth": 2505,
  " ple": 2506,
  "iber": 2507,
  " Sept": 2508,
  " stop": 2509,
  " hours": 2510,
  "aker": 2511,
  " cases": 2512,
  " model": 2513,
  " foot": 2514,
  "Den": 2515,
  " music": 2516,
  " cred": 2517,
  " Islam": 2518,
  " created": 2519,
  " relationship": 2520,
  " type": 2521,
  "aut": 2522,
  " cannot": 2523,
  " weap": 2524,
  " lay": 2525,
  "ky": 2526,
  "ilities": 2527,
  " administ": 2528,
  " final": 2529,
  " continue": 2530,
  " ey": 2531,
  "ats": 2532,
  " aud": 2533,
  " court": 2534,
  "ivil": 2535,
  " upd": 2536,
  " students": 2537,
  " held": 2538,
  " member": 2539,
  " coun": 2540,
  "lt": 2541,
  " influ": 2542,
  " source": 2543,
  "ournal": 2544,
  " became": 2545,
  " â": 2546,
  "orpion": 2547,
  " late": 2548,
  "den": 2549,
  " ener": 2550,
  " everyone": 2551,
  "lish": 2552,
  " mach": 2553,
  " workers": 2554,
  " target": 2555,
  " Hon": 2556,
  "bo": 2557,
  " particip": 2558,
  "rodu": 2559,
  "oph": 2560,
  " Sm": 2561,
  " X": 2562,
  " accept": 2563,
  "hington": 2564,
  " answ": 2565,
  " moment": 2566,
  " global": 2567,
  " played": 2568,
  " happened": 2569,
  " alleg": 2570,
  " opportun": 2571,
  "atory": 2572,
  " Regenerative": 2573,
  " Bel": 2574,
  " San": 2575,
  " Su": 2576,
  " weeks": 2577,
  " rev": 2578,
  " house": 2579,
  "uses": 2580,
  " Oct": 2581,
  " wait": 2582,
  " lower": 2583,
  " acqu": 2584,
  "plic": 2585,
  "af": 2586,
  " action": 2587,
  " aren": 2588,
  "'d": 2589,
  "icro": 2590,
  "por": 2591,
  " ways": 2592,
  " production": 2593,
  " soon": 2594,
  " demon": 2595,
  " Washington": 2596,
  " hope": 2597,
  " lost": 2598,
  "time": 2599,
  " popular": 2600,
  "anger": 2601,
  "right": 2602,
  "erc": 2603,
  " sense": 2604,
  " Par": 2605,
  " engine": 2606,
  " ste": 2607,
  " reve": 2608,
  " block": 2609,
  "tee": 2610,
  " range": 2611,
  " :": 2612,
  " code": 2613,
  "They": 2614,
  "uesday": 2615,
  " cand": 2616,
  " energy": 2617,
  " Trans": 2618,
  " earlier": 2619,
  " card": 2620,
  " Ne": 2621,
  " Ab": 2622,
  "â": 2623,
  " gets": 2624,
  " David": 2625,
  " mot": 2626,
  " Qu": 2627,
  "acebook": 2628,
  " Pe": 2629,
  "ray": 2630,
  "ables": 2631,
  " request": 2632,
  " match": 2633,
  " Ag": 2634,
  " den": 2635,
  " Now": 2636,
  "sc": 2637,
  "iple": 2638,
  " Sch": 2639,
  "cial": 2640,
  " method": 2641,
  "oles": 2642,
  " California": 2643,
  " anim": 2644,
  " Sci": 2645,
  " fem": 2646,
  "At": 2647,
  " Twitter": 2648,
  " Mus": 2649,
  " personal": 2650,
  "ferences": 2651,
  "AT": 2652,
  " standard": 2653,
  "iod": 2654,
  "force": 2655,
  " terms": 2656,
  " mid": 2657,
  " dog": 2658,
  " stay": 2659,
  " nation": 2660,
  "oke": 2661,
  "?â": 2662,
  "ouble": 2663,
  "ought": 2664,
  " capt": 2665,
  "epend": 2666,
  " recently": 2667,
  "vil": 2668,
  " intell": 2669,
  " size": 2670,
  "arily": 2671,
  " living": 2672,
  " January": 2673,
  "ises": 2674,
  " subject": 2675,
  " secret": 2676,
  " Tuesday": 2677,
  " affect": 2678,
  " dead": 2679,
  " private": 2680,
  " spent": 2681,
  " minutes": 2682,
  " impact": 2683,
  " Ty": 2684,
  " Del": 2685,
  "eth": 2686,
  " additional": 2687,
  " charges": 2688,
  " IQ": 2689,
  " pred": 2690,
  "yle": 2691,
  "ging": 2692,
  "ining": 2693,
  "OR": 2694,
  " buy": 2695,
  " user": 2696,
  " exam": 2697,
  "ule": 2698,
  " flo": 2699,
  " stuff": 2700,
  "How": 2701,
  "vertis": 2702,
  "hel": 2703,
  " thous": 2704,
  " speech": 2705,
  "Ch": 2706,
  " worked": 2707,
  " goal": 2708,
  " Off": 2709,
  " regard": 2710,
  "anced": 2711,
  " link": 2712,
  " Green": 2713,
  "ett": 2714,
  "ification": 2715,
  " situation": 2716,
  " inj": 2717,
  " email": 2718,
  "ounty": 2719,
  "raz": 2720,
  "cer": 2721,
  " fair": 2722,
  " users": 2723,
  " necess": 2724,
  " heav": 2725,
  "aily": 2726,
  " medical": 2727,
  " pull": 2728,
  " Sund": 2729,
  " heard": 2730,
  " decl": 2731,
  "ote": 2732,
  " surpr": 2733,
  " immedi": 2734,
  " /": 2735,
  "ructure": 2736,
  "unt": 2737,
  " goes": 2738,
  " hot": 2739,
  "eter": 2740,
  "de": 2741,
  " Friday": 2742,
  " consider": 2743,
  " poll": 2744,
  " cal": 2745,
  " Republican": 2746,
  " leaders": 2747,
  "izing": 2748,
  "rian": 2749,
  " conduct": 2750,
  "An": 2751,
  " |": 2752,
  " period": 2753,
  " services": 2754,
  " ap": 2755,
  " price": 2756,
  "king": 2757,
  " votes": 2758,
  " takes": 2759,
  " consum": 2760,
  " serious": 2761,
  " gas": 2762,
  " rac": 2763,
  " commit": 2764,
  "uth": 2765,
  "based": 2766,
  " page": 2767,
  " included": 2768,
  "etic": 2769,
  " demonstr": 2770,
  " TV": 2771,
  " collect": 2772,
  " White": 2773,
  " except": 2774,
  " bar": 2775,
  "ico": 2776,
  " Thurs": 2777,
  " military": 2778,
  " looks": 2779,
  " Har": 2780,
  " Minister": 2781,
  " wind": 2782,
  " domain": 2783,
  "rought": 2784,
  " deep": 2785,
  " Geor": 2786,
  " sort": 2787,
  "alt": 2788,
  " libr": 2789,
  "ij": 2790,
  " difference": 2791,
  " hear": 2792,
  "bor": 2793,
  " areas": 2794,
  " recogn": 2795,
  " paper": 2796,
  " Me": 2797,
  " coll": 2798,
  " pan": 2799,
  " civil": 2800,
  "ria": 2801,
  " received": 2802,
  "berg": 2803,
  " easy": 2804,
  "yl": 2805,
  "idered": 2806,
  " EU": 2807,
  " gave": 2808,
  " turned": 2809,
  " chance": 2810,
  "fact": 2811,
  " whose": 2812,
  " Center": 2813,
  " cover": 2814,
  " Thursday": 2815,
  "ique": 2816,
  " Facebook": 2817,
  " webs": 2818,
  "obile": 2819,
  " inside": 2820,
  " Scorpion": 2821,
  " round": 2822,
  " sen": 2823,
  " vo": 2824,
  " Some": 2825,
  "iminal": 2826,
  "iller": 2827,
  " problems": 2828,
  " broad": 2829,
  " check": 2830,
  " contact": 2831,
  "atform": 2832,
  " Sub": 2833,
  " nearly": 2834,
  "lyn": 2835,
  "fered": 2836,
  " Wed": 2837,
  "nesday": 2838,
  " officer": 2839,
  " bur": 2840,
  " Mond": 2841,
  " While": 2842,
  "IN": 2843,
  " King": 2844,
  " comput": 2845,
  "oo": 2846,
  "mark": 2847,
  "ES": 2848,
  " reb": 2849,
  "ube": 2850,
  " estim": 2851,
  " simple": 2852,
  " Cour": 2853,
  " <": 2854,
  " Sen": 2855,
  " clos": 2856,
  " measure": 2857,
  "AN": 2858,
  "vey": 2859,
  " Park": 2860,
  " September": 2861,
  "asc": 2862,
  " Ham": 2863,
  " IS": 2864,
  " various": 2865,
  " respect": 2866,
  " Austral": 2867,
  " considered": 2868,
  "ww": 2869,
  " Rt": 2870,
  " Sunday": 2871,
  " differences": 2872,
  " candid": 2873,
  " Af": 2874,
  "attle": 2875,
  " plans": 2876,
  " respond": 2877,
  " Department": 2878,
  "Tr": 2879,
  " separ": 2880,
  " cle": 2881,
  " mater": 2882,
  "ledge": 2883,
  " reach": 2884,
  "bit": 2885,
  " comment": 2886,
  " log": 2887,
  " Wild": 2888,
  " address": 2889,
  " products": 2890,
  " growth": 2891,
  "yond": 2892,
  " emer": 2893,
  " En": 2894,
  "itute": 2895,
  " approach": 2896,
  "ills": 2897,
  " officers": 2898,
  " Wednesday": 2899,
  " track": 2900,
  " Party": 2901,
  " Willi": 2902,
  " sold": 2903,
  " drug": 2904,
  "bed": 2905,
  " rate": 2906,
  " Monday": 2907,
  "One": 2908,
  "joy": 2909,
  " Mark": 2910,
  " cause": 2911,
  "ples": 2912,
  " features": 2913,
  " July": 2914,
  " Phil": 2915,
  " phot": 2916,
  " lack": 2917,
  " autom": 2918,
  " quarter": 2919,
  "cember": 2920,
  " norm": 2921,
  " network": 2922,
  " base": 2923,
  "eed": 2924,
  " ax": 2925,
  "FL": 2926,
  "adem": 2927,
  "het": 2928,
  "ope": 2929,
  " climate": 2930,
  " environmental": 2931,
  " cells": 2932,
  "aving": 2933,
  "lev": 2934,
  " exactly": 2935,
  " reading": 2936,
  " Em": 2937,
  " indic": 2938,
  " built": 2939,
  " levels": 2940,
  " virt": 2941,
  " select": 2942,
  " coach": 2943,
  "\",": 2944,
  " board": 2945,
  "uments": 2946,
  "igr": 2947,
  "hood": 2948,
  " slow": 2949,
  " anyone": 2950,
  " economic": 2951,
  " propos": 2952,
  " education": 2953,
  ":/": 2954,
  "wan": 2955,
  "amer": 2956,
  " religious": 2957,
  " voters": 2958,
  " defin": 2959,
  " ball": 2960,
  " Do": 2961,
  " Times": 2962,
  "angu": 2963,
  " spot": 2964,
  " claims": 2965,
  "any": 2966,
  " intelligence": 2967,
  " currently": 2968,
  " Mon": 2969,
  " Paul": 2970,
  "undred": 2971,
  " led": 2972,
  " primary": 2973,
  " mention": 2974,
  "reng": 2975,
  " costs": 2976,
  " shoot": 2977,
  "lled": 2978,
  "ips": 2979,
  " director": 2980,
  "where": 2981,
  " sometimes": 2982,
  " official": 2983,
  "iet": 2984,
  " pie": 2985,
  "ports": 2986,
  " rules": 2987,
  " training": 2988,
  "erry": 2989,
  "ycling": 2990,
  " force": 2991,
  " walk": 2992,
  " arri": 2993,
  " leave": 2994,
  " reports": 2995,
  " loss": 2996,
  " safe": 2997,
  "entially": 2998,
  " share": 2999,
  "uel": 3000,
  " neigh": 3001,
  " progress": 3002,
  "bum": 3003,
  "hib": 3004,
  "play": 3005,
  "lex": 3006,
  " occur": 3007,
  " prior": 3008,
  "usion": 3009,
  " (@": 3010,
  " wide": 3011,
  " doub": 3012,
  "OT": 3013,
  " critic": 3014,
  " December": 3015,
  " shot": 3016,
  " bud": 3017,
  " career": 3018,
  " platform": 3019,
  "na": 3020,
  "using": 3021,
  "ara": 3022,
  " pen": 3023,
  " Germany": 3024,
  " phone": 3025,
  "...": 3026,
  "://": 3027,
  " international": 3028,
  " brought": 3029,
  "fully": 3030,
  " described": 3031,
  "rown": 3032,
  "aging": 3033,
  " extreme": 3034,
  " Japanese": 3035,
  " talking": 3036,
  "men": 3037,
  " dise": 3038,
  " offer": 3039,
  "itude": 3040,
  "Re": 3041,
  " Michael": 3042,
  " County": 3043,
  " population": 3044,
  "aur": 3045,
  " fans": 3046,
  " Aug": 3047,
  "uk": 3048,
  "illeg": 3049,
  " International": 3050,
  " ver": 3051,
  "ruction": 3052,
  " deg": 3053,
  " draw": 3054,
  " parent": 3055,
  " Ang": 3056,
  "aries": 3057,
  " dig": 3058,
  " By": 3059,
  " couple": 3060,
  " confir": 3061,
  " Gl": 3062,
  " overall": 3063,
  "hest": 3064,
  " majority": 3065,
  "ana": 3066,
  " natur": 3067,
  " usually": 3068,
  " BAR": 3069,
  " morning": 3070,
  "okes": 3071,
  " streng": 3072,
  " perhaps": 3073,
  "ze": 3074,
  " Pat": 3075,
  "ancial": 3076,
  " demand": 3077,
  "aly": 3078,
  " October": 3079,
  "ospital": 3080,
  "She": 3081,
  " Post": 3082,
  " directly": 3083,
  "oud": 3084,
  " anti": 3085,
  "ript": 3086,
  " deli": 3087,
  "body": 3088,
  " avoid": 3089,
  " road": 3090,
  " associ": 3091,
  " practice": 3092,
  " science": 3093,
  " showed": 3094,
  " GO": 3095,
  " )": 3096,
  ">/": 3097,
  " ten": 3098,
  "gest": 3099,
  " leader": 3100,
  " required": 3101,
  " via": 3102,
  " star": 3103,
  "etro": 3104,
  " latest": 3105,
  " illeg": 3106,
  " hands": 3107,
  "nown": 3108,
  " beyond": 3109,
  " uses": 3110,
  "craft": 3111,
  " Ke": 3112,
  " son": 3113,
  " Ir": 3114,
  " tal": 3115,
  " wond": 3116,
  "usive": 3117,
  " ord": 3118,
  " pack": 3119,
  " pers": 3120,
  "akers": 3121,
  " religion": 3122,
  " jud": 3123,
  "ceed": 3124,
  " appears": 3125,
  " unc": 3126,
  "omen": 3127,
  " tool": 3128,
  " analysis": 3129,
  " observ": 3130,
  " hundred": 3131,
  " ur": 3132,
  "US": 3133,
  "omas": 3134,
  " Hait": 3135,
  "put": 3136,
  "ecause": 3137,
  " disapp": 3138,
  " ready": 3139,
  " regular": 3140,
  "ening": 3141,
  "ibly": 3142,
  "ON": 3143,
  " decided": 3144,
  "ees": 3145,
  " fell": 3146,
  " systems": 3147,
  "ban": 3148,
  " books": 3149,
  "cr": 3150,
  " reasons": 3151,
  " cit": 3152,
  "ops": 3153,
  " Dan": 3154,
  " recomm": 3155,
  " veh": 3156,
  "apt": 3157,
  " write": 3158,
  "itution": 3159,
  " improve": 3160,
  " treatment": 3161,
  "oper": 3162,
  "iverse": 3163,
  " wants": 3164,
  " topic": 3165,
  " Earth": 3166,
  " Hill": 3167,
  " vote": 3168,
  " looked": 3169,
  "oman": 3170,
  "pos": 3171,
  "imin": 3172,
  " killed": 3173,
  " died": 3174,
  " multiple": 3175,
  "idents": 3176,
  " que": 3177,
  "rect": 3178,
  " squ": 3179,
  "pir": 3180,
  " Rich": 3181,
  "â¢": 3182,
  " convers": 3183,
  " answer": 3184,
  " communic": 3185,
  "atever": 3186,
  "hold": 3187,
  "eared": 3188,
  "SC": 3189,
  " resear": 3190,
  "chers": 3191,
  "cil": 3192,
  " club": 3193,
  "MS": 3194,
  " figure": 3195,
  " thousands": 3196,
  " numbers": 3197,
  " lives": 3198,
  " compl": 3199,
  " tried": 3200,
  " includes": 3201,
  " biggest": 3202,
  "agon": 3203,
  " boy": 3204,
  "ences": 3205,
  " purch": 3206,
  "ulations": 3207,
  " models": 3208,
  "iant": 3209,
  "itional": 3210,
  " Rober": 3211,
  " Court": 3212,
  " Miss": 3213,
  "Cl": 3214,
  " felt": 3215,
  " eight": 3216,
  "edom": 3217,
  " economy": 3218,
  " pict": 3219,
  " estab": 3220,
  " enjoy": 3221,
  "].": 3222,
  " obvious": 3223,
  " altern": 3224,
  " hur": 3225,
  " subst": 3226,
  " behav": 3227,
  " Ber": 3228,
  "frac": 3229,
  "ager": 3230,
  " hon": 3231,
  " dro": 3232,
  " consist": 3233,
  " Feb": 3234,
  " administration": 3235,
  " print": 3236,
  " reveal": 3237,
  " aw": 3238,
  "astic": 3239,
  " knew": 3240,
  " Mor": 3241,
  " parts": 3242,
  "ened": 3243,
  " written": 3244,
  " ment": 3245,
  " changed": 3246,
  " provided": 3247,
  " travel": 3248,
  " thinking": 3249,
  " risk": 3250,
  " Int": 3251,
  " writing": 3252,
  "vertisement": 3253,
  "rix": 3254,
  "ASTL": 3255,
  " victim": 3256,
  " fill": 3257,
  " introdu": 3258,
  " cool": 3259,
  "mon": 3260,
  "chie": 3261,
  "iding": 3262,
  " events": 3263,
  " Tre": 3264,
  " financial": 3265,
  " frequ": 3266,
  " increasing": 3267,
  " weekend": 3268,
  "cast": 3269,
  " document": 3270,
  "inter": 3271,
  "ivity": 3272,
  " copy": 3273,
  "aming": 3274,
  "eles": 3275,
  " Cycling": 3276,
  " pain": 3277,
  "With": 3278,
  " concern": 3279,
  " stru": 3280,
  " alone": 3281,
  " friend": 3282,
  "rowd": 3283,
  " seven": 3284,
  " tou": 3285,
  " machine": 3286,
  " wouldn": 3287,
  " defense": 3288,
  "No": 3289,
  "anch": 3290,
  "oly": 3291,
  " Black": 3292,
  " scores": 3293,
  "known": 3294,
  "ham": 3295,
  " status": 3296,
  "change": 3297,
  "more": 3298,
  " assist": 3299,
  "isher": 3300,
  "ously": 3301,
  "iction": 3302,
  " blog": 3303,
  " album": 3304,
  " criminal": 3305,
  "orney": 3306,
  "airs": 3307,
  "inally": 3308,
  "inese": 3309,
  " speed": 3310,
  " God": 3311,
  " Tissue": 3312,
  " huge": 3313,
  " moved": 3314,
  " larger": 3315,
  " attention": 3316,
  "icient": 3317,
  ".)": 3318,
  " August": 3319,
  " detail": 3320,
  "Sh": 3321,
  " ones": 3322,
  " maint": 3323,
  " society": 3324,
  " fast": 3325,
  " certainly": 3326,
  " Institute": 3327,
  "raq": 3328,
  " particularly": 3329,
  " girl": 3330,
  " smart": 3331,
  "icit": 3332,
  "see": 3333,
  "ado": 3334,
  "lands": 3335,
  "orters": 3336,
  "itch": 3337,
  "ester": 3338,
  "ovember": 3339,
  " Democrats": 3340,
  " mother": 3341,
  " schools": 3342,
  " band": 3343,
  " comments": 3344,
  " El": 3345,
  " Law": 3346,
  " twe": 3347,
  " website": 3348,
  "wo": 3349,
  "ga": 3350,
  "**": 3351,
  " Pal": 3352,
  " title": 3353,
  "estern": 3354,
  " efforts": 3355,
  " poor": 3356,
  " remain": 3357,
  "Some": 3358,
  " trade": 3359,
  " starting": 3360,
  " conservative": 3361,
  "zz": 3362,
  " Cont": 3363,
  "aught": 3364,
  "encies": 3365,
  " grad": 3366,
  "xim": 3367,
  " calls": 3368,
  "erve": 3369,
  " bott": 3370,
  "}{": 3371,
  "ida": 3372,
  "come": 3373,
  "tr": 3374,
  " allowed": 3375,
  "light": 3376,
  "After": 3377,
  " screen": 3378,
  " crowd": 3379,
  " perfect": 3380,
  " USA": 3381,
  " debate": 3382,
  " sat": 3383,
  " Russian": 3384,
  " integr": 3385,
  " Â": 3386,
  " term": 3387,
  " kids": 3388,
  "ths": 3389,
  "Ph": 3390,
  " Chinese": 3391,
  " forces": 3392,
  " x": 3393,
  " continued": 3394,
  " manager": 3395,
  " ban": 3396,
  " investigation": 3397,
  " giving": 3398,
  " lif": 3399,
  " achie": 3400,
  "To": 3401,
  "oved": 3402,
  " ut": 3403,
  " opportunity": 3404,
  " epis": 3405,
  " extra": 3406,
  " coal": 3407,
  " largest": 3408,
  " learn": 3409,
  " India": 3410,
  " completely": 3411,
  " surv": 3412,
  " tend": 3413,
  "ishing": 3414,
  " contribut": 3415,
  " tur": 3416,
  " Republicans": 3417,
  " slight": 3418,
  "Be": 3419,
  " suff": 3420,
  "AD": 3421,
  " id": 3422,
  " Des": 3423,
  " designed": 3424,
  " quality": 3425,
  " relative": 3426,
  " unf": 3427,
  " Mat": 3428,
  " text": 3429,
  " November": 3430,
  " Donald": 3431,
  " attacks": 3432,
  "olute": 3433,
  " guy": 3434,
  "LE": 3435,
  "issions": 3436,
  "While": 3437,
  "eneral": 3438,
  " drink": 3439,
  "ges": 3440,
  " prevent": 3441,
  " George": 3442,
  " agency": 3443,
  "arian": 3444,
  "My": 3445,
  " reality": 3446,
  " Iraq": 3447,
  " father": 3448,
  " Here": 3449,
  "ession": 3450,
  " types": 3451,
  "alled": 3452,
  " female": 3453,
  " Port": 3454,
  " blood": 3455,
  " throughout": 3456,
  "dom": 3457,
  " border": 3458,
  " bank": 3459,
  " executive": 3460,
  "rench": 3461,
  "down": 3462,
  " Che": 3463,
  " doll": 3464,
  " scale": 3465,
  " damage": 3466,
  " draft": 3467,
  " conditions": 3468,
  "wise": 3469,
  " useful": 3470,
  " gives": 3471,
  " middle": 3472,
  "aph": 3473,
  "Ex": 3474,
  " choice": 3475,
  " heat": 3476,
  "coin": 3477,
  " capital": 3478,
  "ests": 3479,
  " positive": 3480,
  " Muslim": 3481,
  "inary": 3482,
  " Mex": 3483,
  "gen": 3484,
  " nature": 3485,
  " factors": 3486,
  " fit": 3487,
  " wage": 3488,
  "cy": 3489,
  "isl": 3490,
  " feed": 3491,
  " focus": 3492,
  "sey": 3493,
  " experien": 3494,
  " labor": 3495,
  " Science": 3496,
  " mix": 3497,
  " Network": 3498,
  "chan": 3499,
  " wat": 3500,
  "aturday": 3501,
  "lection": 3502,
  "list": 3503,
  "pper": 3504,
  " maybe": 3505,
  "icted": 3506,
  "ario": 3507,
  " charge": 3508,
  " hor": 3509,
  "sequ": 3510,
  " mill": 3511,
  " shown": 3512,
  " sens": 3513,
  " names": 3514,
  "ocks": 3515,
  " benefits": 3516,
  " spokes": 3517,
  " resour": 3518,
  " Even": 3519,
  "ategy": 3520,
  " path": 3521,
  "ufact": 3522,
  " Brown": 3523,
  " Afric": 3524,
  " langu": 3525,
  " tour": 3526,
  ".)\n\n": 3527,
  " Russia": 3528,
  " danger": 3529,
  " Sw": 3530,
  " und": 3531,
  "cul": 3532,
  "box": 3533,
  " journal": 3534,
  " Play": 3535,
  " Per": 3536,
  " culture": 3537,
  " although": 3538,
  " note": 3539,
  " histor": 3540,
  "aches": 3541,
  " Rec": 3542,
  "Pr": 3543,
  " gone": 3544,
  " independ": 3545,
  " inn": 3546,
  " previously": 3547,
  "overed": 3548,
  " Apple": 3549,
  " movement": 3550,
  " prep": 3551,
  "orter": 3552,
  "Is": 3553,
  " Scott": 3554,
  " download": 3555,
  " characters": 3556,
  " interesting": 3557,
  " property": 3558,
  " Coun": 3559,
  "kes": 3560,
  "outhern": 3561,
  " exerc": 3562,
  " meeting": 3563,
  " store": 3564,
  " named": 3565,
  " STL": 3566,
  " hospital": 3567,
  " First": 3568,
  " Democratic": 3569,
  "obby": 3570,
  " terror": 3571,
  " sn": 3572,
  " sexual": 3573,
  "rast": 3574,
  " failed": 3575,
  "ipe": 3576,
  " stre": 3577,
  " budget": 3578,
  " Val": 3579,
  " foreign": 3580,
  " carry": 3581,
  "inn": 3582,
  " floor": 3583,
  " Bush": 3584,
  " mur": 3585,
  " East": 3586,
  " town": 3587,
  " Her": 3588,
  " agreement": 3589,
  " cities": 3590,
  " citiz": 3591,
  " movie": 3592,
  " esc": 3593,
  " ess": 3594,
  " presidential": 3595,
  " opin": 3596,
  " leading": 3597,
  "ruary": 3598,
  " song": 3599,
  "resh": 3600,
  " laws": 3601,
  " â¦": 3602,
  "Im": 3603,
  " limited": 3604,
  " crime": 3605,
  "field": 3606,
  " transfer": 3607,
  " spending": 3608,
  " upon": 3609,
  "orthern": 3610,
  " decades": 3611,
  "ground": 3612,
  "pects": 3613,
  "elly": 3614,
  " mechan": 3615,
  "bridge": 3616,
  "::": 3617,
  "anders": 3618,
  " trust": 3619,
  " fear": 3620,
  " February": 3621,
  " arch": 3622,
  " finally": 3623,
  " chief": 3624,
  " fully": 3625,
  " restr": 3626,
  " Nor": 3627,
  " weight": 3628,
  " modern": 3629,
  " Mars": 3630,
  "lied": 3631,
  " liter": 3632,
  " reached": 3633,
  "itor": 3634,
  " Tex": 3635,
  " mostly": 3636,
  " compar": 3637,
  "ements": 3638,
  " fighting": 3639,
  "oming": 3640,
  " tests": 3641,
  " conservatives": 3642,
  "ston": 3643,
  " sle": 3644,
  " appeared": 3645,
  "actions": 3646,
  " promot": 3647,
  "icles": 3648,
  " cy": 3649,
  " summer": 3650,
  " League": 3651,
  " Nov": 3652,
  "omp": 3653,
  "AG": 3654,
  " analy": 3655,
  " park": 3656,
  " physical": 3657,
  "onom": 3658,
  " natural": 3659,
  " Thomas": 3660,
  "ension": 3661,
  " cross": 3662,
  "while": 3663,
  " willing": 3664,
  "EN": 3665,
  "fort": 3666,
  " web": 3667,
  " Association": 3668,
  "phi": 3669,
  " condition": 3670,
  " region": 3671,
  " haven": 3672,
  " whatever": 3673,
  " immediately": 3674,
  " caused": 3675,
  "AC": 3676,
  " individuals": 3677,
  " senior": 3678,
  " rank": 3679,
  "ken": 3680,
  " correl": 3681,
  " BBC": 3682,
  " concept": 3683,
  "lying": 3684,
  " couldn": 3685,
  " speak": 3686,
  " clearly": 3687,
  " weapons": 3688,
  " Indian": 3689,
  " temper": 3690,
  " >": 3691,
  "ndall": 3692,
  " McC": 3693,
  " Saturday": 3694,
  " prec": 3695,
  " encour": 3696,
  " meaning": 3697,
  " initial": 3698,
  " knows": 3699,
  " More": 3700,
  " reven": 3701,
  "oms": 3702,
  "!!": 3703,
  "Ste": 3704,
  " UN": 3705,
  " towards": 3706,
  " degree": 3707,
  " visit": 3708,
  " increased": 3709,
  " Act": 3710,
  " followed": 3711,
  " Aut": 3712,
  "Un": 3713,
  " box": 3714,
  "FC": 3715,
  " lose": 3716,
  " items": 3717,
  "):": 3718,
  " library": 3719,
  "wid": 3720,
  " scene": 3721,
  " issued": 3722,
  " Williams": 3723,
  "enge": 3724,
  " image": 3725,
  "bl": 3726,
  " sto": 3727,
  "osh": 3728,
  "add": 3729,
  "ocked": 3730,
  " helped": 3731,
  "ford": 3732,
  "LS": 3733,
  "unk": 3734,
  "mail": 3735,
  " stated": 3736,
  "itely": 3737,
  ".â": 3738,
  " Then": 3739,
  " shape": 3740,
  " finding": 3741,
  " rout": 3742,
  "ttp": 3743,
  "acing": 3744,
  " lawy": 3745,
  " illegal": 3746,
  " file": 3747,
  "real": 3748,
  " Tur": 3749,
  " swe": 3750,
  " remember": 3751,
  " adm": 3752,
  " guys": 3753,
  " Day": 3754,
  " sal": 3755,
  "face": 3756,
  " traff": 3757,
  " ideology": 3758,
  " date": 3759,
  " academ": 3760,
  " beginning": 3761,
  " pressure": 3762,
  " saf": 3763,
  " Ann": 3764,
  " ideas": 3765,
  " @": 3766,
  " adult": 3767,
  "acher": 3768,
  " application": 3769,
  " Smith": 3770,
  "ma": 3771,
  " EASTL": 3772,
  " violence": 3773,
  "All": 3774,
  " credit": 3775,
  "ented": 3776,
  "iring": 3777,
  " option": 3778,
  " opened": 3779,
  " Korea": 3780,
  " ens": 3781,
  "mp": 3782,
  " cele": 3783,
  " categ": 3784,
  " approxim": 3785,
  " hous": 3786,
  " minor": 3787,
  " existing": 3788,
  " happy": 3789,
  " places": 3790,
  " Found": 3791,
  "\".\n\n": 3792,
  " politics": 3793,
  " college": 3794,
  "ali": 3795,
  " Island": 3796,
  "board": 3797,
  " highly": 3798,
  "----": 3799,
  " Haiti": 3800,
  "mond": 3801,
  " delay": 3802,
  " compared": 3803,
  "ading": 3804,
  "orks": 3805,
  " absolute": 3806,
  " som": 3807,
  " photo": 3808,
  " noted": 3809,
  " arrested": 3810,
  " remains": 3811,
  " II": 3812,
  "vernment": 3813,
  "llor": 3814,
  "AM": 3815,
  "just": 3816,
  " gap": 3817,
  "Des": 3818,
  " eventually": 3819,
  "gor": 3820,
  " Mart": 3821,
  " organization": 3822,
  " message": 3823,
  " ahead": 3824,
  "orida": 3825,
  " challeng": 3826,
  " ign": 3827,
  " James": 3828,
  " wife": 3829,
  " policies": 3830,
  " myself": 3831,
  " Pac": 3832,
  " apparent": 3833,
  " alleged": 3834,
  " sources": 3835,
  " functions": 3836,
  " safety": 3837,
  "aith": 3838,
  " generally": 3839,
  " plant": 3840,
  "irth": 3841,
  " student": 3842,
  " Labour": 3843,
  " kick": 3844,
  " attract": 3845,
  " Our": 3846,
  " produced": 3847,
  "ino": 3848,
  " advant": 3849,
  " easily": 3850,
  " repe": 3851,
  "othes": 3852,
  " Dis": 3853,
  " growing": 3854,
  "atter": 3855,
  " experiment": 3856,
  " receive": 3857,
  " mobile": 3858,
  " Mod": 3859,
  " argument": 3860,
  " susp": 3861,
  " highest": 3862,
  "gar": 3863,
  " continu": 3864,
  "gins": 3865,
  " explain": 3866,
  " Texas": 3867,
  "ployment": 3868,
  " developed": 3869,
  "antic": 3870,
  " chem": 3871,
  "pg": 3872,
  " clean": 3873,
  " negative": 3874,
  " manufact": 3875,
  " meant": 3876,
  " supposed": 3877,
  " rare": 3878,
  " table": 3879,
  " scen": 3880,
  " freedom": 3881,
  " customers": 3882,
  " paid": 3883,
  " hom": 3884,
  "pen": 3885,
  "Le": 3886,
  " numer": 3887,
  "page": 3888,
  " Spe": 3889,
  "Con": 3890,
  " firm": 3891,
  "odies": 3892,
  " subs": 3893,
  " French": 3894,
  " topics": 3895,
  "\\/": 3896,
  "][][": 3897,
  " Florida": 3898,
  " aim": 3899,
  " eyes": 3900,
  " drive": 3901,
  " Street": 3902,
  "ek": 3903,
  "onents": 3904,
  " lic": 3905,
  " Mur": 3906,
  "wide": 3907,
  " researchers": 3908,
  " NFL": 3909,
  "ounds": 3910,
  "pose": 3911,
  " fine": 3912,
  " hyp": 3913,
  "aves": 3914,
  " employment": 3915,
  " focused": 3916,
  " details": 3917,
  " recommend": 3918,
  "rict": 3919,
  "agn": 3920,
  "Zero": 3921,
  " moving": 3922,
  " cast": 3923,
  "arc": 3924,
  " spend": 3925,
  " counter": 3926,
  " stage": 3927,
  "isions": 3928,
  " department": 3929,
  " launch": 3930,
  " net": 3931,
  "rows": 3932,
  "Don": 3933,
  " Great": 3934,
  " Serv": 3935,
  " funding": 3936,
  " knowledge": 3937,
  " continues": 3938,
  " School": 3939,
  "rs": 3940,
  "odes": 3941,
  "onent": 3942,
  " letter": 3943,
  " creating": 3944,
  " legisl": 3945,
  "ller": 3946,
  "ingly": 3947,
  " feature": 3948,
  "Advertisement": 3949,
  "stone": 3950,
  "RR": 3951,
  " concer": 3952,
  " voice": 3953,
  " mist": 3954,
  " door": 3955,
  " employees": 3956,
  "bon": 3957,
  " Miller": 3958,
  " strength": 3959,
  " Prime": 3960,
  " Star": 3961,
  "no": 3962,
  " explained": 3963,
  "inu": 3964,
  " sett": 3965,
  "rief": 3966,
  " rob": 3967,
  " reflect": 3968,
  " intr": 3969,
  "ih": 3970,
  " panel": 3971,
  " Bo": 3972,
  "quer": 3973,
  "zer": 3974,
  "AP": 3975,
  " oil": 3976,
  " agree": 3977,
  " Conferences": 3978,
  " pSS": 3979,
  " operations": 3980,
  " ended": 3981,
  " auto": 3982,
  "antly": 3983,
  " hum": 3984,
  " asking": 3985,
  " suggests": 3986,
  " powerful": 3987,
  " Super": 3988,
  "awn": 3989,
  " prem": 3990,
  "soft": 3991,
  "LA": 3992,
  " Syria": 3993,
  " dism": 3994,
  "which": 3995,
  "vant": 3996,
  " parents": 3997,
  "According": 3998,
  " Well": 3999,
  " brain": 4000,
  "xual": 4001,
  " Tyndall": 4002,
  " Ser": 4003,
  " ren": 4004,
  "SP": 4005,
  " Delphi": 4006,
  " whom": 4007,
  " strategy": 4008,
  "ago": 4009,
  " despite": 4010,
  " century": 4011,
  " English": 4012,
  "ulate": 4013,
  " sil": 4014,
  " Ry": 4015,
  " options": 4016,
  "andom": 4017,
  " According": 4018,
  " infect": 4019,
  " extremely": 4020,
  "ander": 4021,
  " shared": 4022,
  " commer": 4023,
  " imag": 4024,
  " passed": 4025,
  " adop": 4026,
  " England": 4027,
  " Australia": 4028,
  " notice": 4029,
  " miles": 4030,
  "ym": 4031,
  " skills": 4032,
  "iw": 4033,
  " cert": 4034,
  " genetic": 4035,
  " Philip": 4036,
  " dat": 4037,
  "vere": 4038,
  " Ver": 4039,
  " task": 4040,
  " candidate": 4041,
  " slightly": 4042,
  " telev": 4043,
  " ult": 4044,
  " lines": 4045,
  "lor": 4046,
  " Good": 4047,
  " offensive": 4048,
  " Tor": 4049,
  "secut": 4050,
  " belief": 4051,
  "lease": 4052,
  " unique": 4053,
  "aked": 4054,
  " league": 4055,
  " tack": 4056,
  " incident": 4057,
  "These": 4058,
  " Ant": 4059,
  " Bill": 4060,
  "olic": 4061,
  "oti": 4062,
  "owers": 4063,
  " Most": 4064,
  " explan": 4065,
  " scientists": 4066,
  " wild": 4067,
  "uke": 4068,
  " interested": 4069,
  "unny": 4070,
  " Engine": 4071,
  "++": 4072,
  " Canadian": 4073,
  "iel": 4074,
  " Commission": 4075,
  " doubt": 4076,
  " influence": 4077,
  "ownt": 4078,
  " conflic": 4079,
  " color": 4080,
  "iced": 4081,
  " allows": 4082,
  " join": 4083,
  " serve": 4084,
  " proposed": 4085,
  " spread": 4086,
  " gain": 4087,
  " authorities": 4088,
  " heavy": 4089,
  " gra": 4090,
  "uild": 4091,
  " Every": 4092,
  " etc": 4093,
  " stories": 4094,
  " easier": 4095,
  " church": 4096,
  " save": 4097,
  " center": 4098,
  " Mac": 4099,
  "iety": 4100,
  "type": 4101,
  " {": 4102,
  " std": 4103,
  "igrants": 4104,
  " pattern": 4105,
  " Liber": 4106,
  "OS": 4107,
  "rial": 4108,
  " Str": 4109,
  " Comp": 4110,
  " hack": 4111,
  " connect": 4112,
  "iny": 4113,
  " partners": 4114,
  " spir": 4115,
  " necessary": 4116,
  " cab": 4117,
  " laun": 4118,
  "\".": 4119,
  " Council": 4120,
  " ge": 4121,
  " correct": 4122,
  "â": 4123,
  " professional": 4124,
  "igration": 4125,
  "spe": 4126,
  " fixed": 4127,
  "level": 4128,
  " actual": 4129,
  " Low": 4130,
  " jack": 4131,
  "ocr": 4132,
  "kin": 4133,
  "gorith": 4134,
  " sites": 4135,
  ");\n\n": 4136,
  " strugg": 4137,
  " material": 4138,
  "osition": 4139,
  " fresh": 4140,
  " aware": 4141,
  " owners": 4142,
  " Security": 4143,
  " ...": 4144,
  " activity": 4145,
  "icrosoft": 4146,
  " sales": 4147,
  "amb": 4148,
  " Police": 4149,
  " destro": 4150,
  "IA": 4151,
  " hundreds": 4152,
  "rey": 4153,
  "ares": 4154,
  "RE": 4155,
  " responsible": 4156,
  " Why": 4157,
  " feet": 4158,
  " accur": 4159,
  " adding": 4160,
  "ilies": 4161,
  " taxes": 4162,
  " cat": 4163,
  " Photo": 4164,
  "iling": 4165,
  " mir": 4166,
  " normal": 4167,
  " liberals": 4168,
  "widget": 4169,
  " mission": 4170,
  " posted": 4171,
  " claimed": 4172,
  " die": 4173,
  "By": 4174,
  " favorite": 4175,
  "room": 4176,
  "ota": 4177,
  " computer": 4178,
  " stra": 4179,
  "ribution": 4180,
  " Sim": 4181,
  " brother": 4182,
  " testing": 4183,
  "ami": 4184,
  " programs": 4185,
  "obe": 4186,
  " Air": 4187,
  " provides": 4188,
  " disp": 4189,
  " radio": 4190,
  "New": 4191,
  " increases": 4192,
  " scientific": 4193,
  "rol": 4194,
  " Chris": 4195,
  " cards": 4196,
  " champ": 4197,
  " Wildstein": 4198,
  " drop": 4199,
  "Go": 4200,
  "ancellor": 4201,
  " disease": 4202,
  " peace": 4203,
  "Ed": 4204,
  " Other": 4205,
  "ona": 4206,
  " showing": 4207,
  "ength": 4208,
  " tick": 4209,
  " audience": 4210,
  " nice": 4211,
  " somew": 4212,
  "uty": 4213,
  "hens": 4214,
  "abor": 4215,
  " thus": 4216,
  "Now": 4217,
  "HE": 4218,
  " trend": 4219,
  " Arab": 4220,
  " bottom": 4221,
  " discussion": 4222,
  " families": 4223,
  " perm": 4224,
  " Ener": 4225,
  " Los": 4226,
  " VR": 4227,
  " Sacks": 4228,
  "uate": 4229,
  " forced": 4230,
  " Hillary": 4231,
  " push": 4232,
  " rough": 4233,
  "Ã­": 4234,
  "ags": 4235,
  " language": 4236,
  " interaction": 4237,
  "encing": 4238,
  " Mexico": 4239,
  "oday": 4240,
  "EO": 4241,
  "uclear": 4242,
  " bought": 4243,
  "enty": 4244,
  "pri": 4245,
  " Ro": 4246,
  " refer": 4247,
  " worse": 4248,
  " male": 4249,
  " daily": 4250,
  " Bank": 4251,
  " Oz": 4252,
  "bre": 4253,
  " corpor": 4254,
  " Haw": 4255,
  " unlike": 4256,
  " presented": 4257,
  " signed": 4258,
  " behavior": 4259,
  " yourself": 4260,
  " connection": 4261,
  " Chancellor": 4262,
  " anx": 4263,
  " emissions": 4264,
  "mosp": 4265,
  "night": 4266,
  "inated": 4267,
  " emb": 4268,
  " coverage": 4269,
  " challenge": 4270,
  "\"\n\n": 4271,
  "bing": 4272,
  " Korean": 4273,
  " style": 4274,
  "ID": 4275,
  " Tom": 4276,
  "igned": 4277,
  "retary": 4278,
  "gu": 4279,
  " mount": 4280,
  " structure": 4281,
  " enem": 4282,
  "pd": 4283,
  "forcement": 4284,
  "Here": 4285,
  " charged": 4286,
  " confirmed": 4287,
  " rise": 4288,
  " organiz": 4289,
  "anded": 4290,
  " faith": 4291,
  "alls": 4292,
  "bur": 4293,
  " becomes": 4294,
  "can": 4295,
  "ola": 4296,
  " Studies": 4297,
  " interests": 4298,
  "wood": 4299,
  " successful": 4300,
  " River": 4301,
  " Angeles": 4302,
  " partner": 4303,
  " values": 4304,
  "urance": 4305,
  " Bit": 4306,
  " nom": 4307,
  " incred": 4308,
  " rock": 4309,
  " possibility": 4310,
  " double": 4311,
  "cknow": 4312,
  "iser": 4313,
  " mer": 4314,
  "eah": 4315,
  "ortunately": 4316,
  " conclud": 4317,
  " appeal": 4318,
  " shut": 4319,
  " internet": 4320,
  " traffic": 4321,
  "iers": 4322,
  " pros": 4323,
  " truth": 4324,
  " guard": 4325,
  " Mer": 4326,
  " celebr": 4327,
  "ties": 4328,
  "EC": 4329,
  " Of": 4330,
  " politic": 4331,
  "outs": 4332,
  " advoc": 4333,
  " Hall": 4334,
  " guess": 4335,
  "ffe": 4336,
  " depend": 4337,
  "ias": 4338,
  "LL": 4339,
  " Foundation": 4340,
  "ipping": 4341,
  " gay": 4342,
  "ruit": 4343,
  " templ": 4344,
  "ulated": 4345,
  " views": 4346,
  " occas": 4347,
  " Adv": 4348,
  " straight": 4349,
  " Rob": 4350,
  " La": 4351,
  " aid": 4352,
  " feeling": 4353,
  " pointed": 4354,
  " dark": 4355,
  " millions": 4356,
  "point": 4357,
  " setting": 4358,
  " Van": 4359,
  " Although": 4360,
  "semb": 4361,
  " rule": 4362,
  "urd": 4363,
  "oyal": 4364,
  "itation": 4365,
  "bert": 4366,
  " species": 4367,
  " containers": 4368,
  " agreed": 4369,
  " send": 4370,
  " magn": 4371,
  " potentially": 4372,
  " station": 4373,
  " pus": 4374,
  " cas": 4375,
  "Ã": 4376,
  " Office": 4377,
  "size": 4378,
  " Human": 4379,
  " Sam": 4380,
  " streets": 4381,
  " announce": 4382,
  "mine": 4383,
  " Cr": 4384,
  " Commit": 4385,
  " Committee": 4386,
  " determin": 4387,
  " weak": 4388,
  "itut": 4389,
  " north": 4390,
  "dd": 4391,
  "arl": 4392,
  " goals": 4393,
  " storm": 4394,
  " From": 4395,
  " tells": 4396,
  "etty": 4397,
  " identity": 4398,
  " purpose": 4399,
  " France": 4400,
  " univers": 4401,
  " applications": 4402,
  " alternative": 4403,
  "Not": 4404,
  "ipp": 4405,
  " Brook": 4406,
  "ked": 4407,
  "kel": 4408,
  " massive": 4409,
  "orial": 4410,
  " entirely": 4411,
  "wards": 4412,
  "aren": 4413,
  " rif": 4414,
  " Bi": 4415,
  " doct": 4416,
  " critical": 4417,
  "uries": 4418,
  " rub": 4419,
  " fan": 4420,
  " ABC": 4421,
  " fat": 4422,
  " shooting": 4423,
  " television": 4424,
  "Sc": 4425,
  " seeing": 4426,
  " Let": 4427,
  " har": 4428,
  "ED": 4429,
  " vill": 4430,
  " trip": 4431,
  " random": 4432,
  " attorney": 4433,
  "ici": 4434,
  " separate": 4435,
  " eth": 4436,
  "Americ": 4437,
  " wonder": 4438,
  " sell": 4439,
  " Bur": 4440,
  " exchange": 4441,
  "erd": 4442,
  "Step": 4443,
  "However": 4444,
  "ju": 4445,
  " atmosp": 4446,
  " np": 4447,
  "_{": 4448,
  " Because": 4449,
  " spl": 4450,
  "band": 4451,
  " neighbor": 4452,
  " Fox": 4453,
  " Ma": 4454,
  "IC": 4455,
  " ice": 4456,
  " jail": 4457,
  " downt": 4458,
  " paying": 4459,
  " Pacific": 4460,
  " vehicle": 4461,
  " effective": 4462,
  " failure": 4463,
  " requires": 4464,
  " Gold": 4465,
  "ups": 4466,
  "essions": 4467,
  " regarding": 4468,
  "ores": 4469,
  " construct": 4470,
  " otherwise": 4471,
  " stick": 4472,
  " Wall": 4473,
  " sche": 4474,
  "aughter": 4475,
  "SU": 4476,
  "win": 4477,
  " defensive": 4478,
  " assum": 4479,
  " birth": 4480,
  " background": 4481,
  " markets": 4482,
  " findings": 4483,
  " professor": 4484,
  "iders": 4485,
  " Big": 4486,
  " Health": 4487,
  "witch": 4488,
  " skin": 4489,
  " generation": 4490,
  " income": 4491,
  " }": 4492,
  " homes": 4493,
  "ception": 4494,
  " onto": 4495,
  " solid": 4496,
  "ean": 4497,
  " opinion": 4498,
  " planned": 4499,
  " arm": 4500,
  " produce": 4501,
  " dollars": 4502,
  "rupt": 4503,
  " Sav": 4504,
  " appropri": 4505,
  " plays": 4506,
  " PC": 4507,
  " Space": 4508,
  "istics": 4509,
  "cell": 4510,
  " theory": 4511,
  "izes": 4512,
  "osure": 4513,
  " south": 4514,
  "ugg": 4515,
  " virtual": 4516,
  " tim": 4517,
  " section": 4518,
  "ersey": 4519,
  " Richard": 4520,
  "org": 4521,
  " minister": 4522,
  "inical": 4523,
  " kept": 4524,
  " paras": 4525,
  " fourth": 4526,
  " Tro": 4527,
  "string": 4528,
  "Ã³": 4529,
  " q": 4530,
  " victims": 4531,
  " assess": 4532,
  " amb": 4533,
  "equ": 4534,
  " remained": 4535,
  " Carol": 4536,
  "aded": 4537,
  " acknow": 4538,
  " Islamic": 4539,
  "lege": 4540,
  " Kim": 4541,
  " Group": 4542,
  " touch": 4543,
  "Read": 4544,
  "ki": 4545,
  " hero": 4546,
  " offers": 4547,
  " associated": 4548,
  "oom": 4549,
  " seeking": 4550,
  "iner": 4551,
  " jump": 4552,
  " bal": 4553,
  "inger": 4554,
  " offered": 4555,
  "gency": 4556,
  " assault": 4557,
  "irgin": 4558,
  "arp": 4559,
  "Image": 4560,
  " notes": 4561,
  "Bel": 4562,
  " patient": 4563,
  " citizens": 4564,
  " Hind": 4565,
  "well": 4566,
  "rain": 4567,
  " limit": 4568,
  "la": 4569,
  "log": 4570,
  "__": 4571,
  " leaving": 4572,
  " ton": 4573,
  "tered": 4574,
  " advantage": 4575,
  " Cur": 4576,
  " protest": 4577,
  " commission": 4578,
  "ifying": 4579,
  "ribute": 4580,
  " stopped": 4581,
  " cris": 4582,
  " Over": 4583,
  " launched": 4584,
  " Britain": 4585,
  " Sa": 4586,
  " trial": 4587,
  " ir": 4588,
  " emot": 4589,
  " conversation": 4590,
  " High": 4591,
  " survey": 4592,
  " Johnson": 4593,
  "RS": 4594,
  " decade": 4595,
  " Kelly": 4596,
  " beat": 4597,
  "zen": 4598,
  "zo": 4599,
  " racial": 4600,
  " Wey": 4601,
  " earth": 4602,
  "icago": 4603,
  " argued": 4604,
  " largely": 4605,
  " restaur": 4606,
  "Mr": 4607,
  " proceed": 4608,
  " achieve": 4609,
  " central": 4610,
  "ether": 4611,
  " Tra": 4612,
  " Game": 4613,
  " brief": 4614,
  " See": 4615,
  " raised": 4616,
  " Alex": 4617,
  " conducted": 4618,
  " Also": 4619,
  " parties": 4620,
  " Die": 4621,
  "elated": 4622,
  " Que": 4623,
  "anging": 4624,
  " planet": 4625,
  "apers": 4626,
  " traditional": 4627,
  " eval": 4628,
  " occurred": 4629,
  "isco": 4630,
  " governor": 4631,
  " teacher": 4632,
  " digital": 4633,
  " Cath": 4634,
  " Cal": 4635,
  " NH": 4636,
  " Manager": 4637,
  " container": 4638,
  " Hammond": 4639,
  " helmin": 4640,
  " Exche": 4641,
  " Exchequer": 4642,
  " concerned": 4643,
  " blue": 4644,
  " Sanders": 4645,
  " Free": 4646,
  " dire": 4647,
  " rap": 4648,
  " micro": 4649,
  "phone": 4650,
  "ription": 4651,
  "OW": 4652,
  " brand": 4653,
  "â,": 4654,
  " standards": 4655,
  " battle": 4656,
  "istan": 4657,
  "alse": 4658,
  " management": 4659,
  " Microsoft": 4660,
  " scr": 4661,
  " worst": 4662,
  " unknown": 4663,
  " estimated": 4664,
  " green": 4665,
  " Columb": 4666,
  " gender": 4667,
  " exercise": 4668,
  "term": 4669,
  " happens": 4670,
  "anta": 4671,
  " Dead": 4672,
  "wage": 4673,
  " variety": 4674,
  " trig": 4675,
  "gun": 4676,
  " jacket": 4677,
  " accounts": 4678,
  " Hel": 4679,
  " string": 4680,
  "PA": 4681,
  "estival": 4682,
  "arden": 4683,
  "ologies": 4684,
  "za": 4685,
  " Army": 4686,
  "oted": 4687,
  "Ob": 4688,
  " remark": 4689,
  " instance": 4690,
  " seemed": 4691,
  " Ken": 4692,
  " dangerous": 4693,
  "ha": 4694,
  " reduce": 4695,
  "oses": 4696,
  " mentioned": 4697,
  "agues": 4698,
  " committee": 4699,
  " basic": 4700,
  " vul": 4701,
  " update": 4702,
  " identified": 4703,
  " AC": 4704,
  " Ben": 4705,
  "ASA": 4706,
  " waiting": 4707,
  "ords": 4708,
  " weapon": 4709,
  " believed": 4710,
  " northern": 4711,
  " Their": 4712,
  " definitely": 4713,
  " opening": 4714,
  " measures": 4715,
  "Trump": 4716,
  " caught": 4717,
  "andon": 4718,
  " Corp": 4719,
  " pun": 4720,
  " coast": 4721,
  "eline": 4722,
  " understanding": 4723,
  " pair": 4724,
  "regon": 4725,
  "cient": 4726,
  "opath": 4727,
  " camer": 4728,
  " pet": 4729,
  " Christie": 4730,
  " Mi": 4731,
  " grand": 4732,
  " equip": 4733,
  "ication": 4734,
  "plot": 4735,
  " Product": 4736,
  "Runny": 4737,
  "Runnymed": 4738,
  "Runnymede": 4739,
  " Weybridge": 4740,
  " tro": 4741,
  " photos": 4742,
  "orrow": 4743,
  " calling": 4744,
  " disappoint": 4745,
  " elements": 4746,
  " stock": 4747,
  " Chicago": 4748,
  " dropped": 4749,
  " hearing": 4750,
  "ae": 4751,
  " enter": 4752,
  " During": 4753,
  "apped": 4754,
  " Bus": 4755,
  "iles": 4756,
  " Mike": 4757,
  " ensure": 4758,
  "print": 4759,
  " Joe": 4760,
  "lock": 4761,
  " revealed": 4762,
  " Frank": 4763,
  "istry": 4764,
  "hors": 4765,
  " increasingly": 4766,
  " specifically": 4767,
  " proposal": 4768,
  " Sun": 4769,
  " commercial": 4770,
  "mar": 4771,
  " Jones": 4772,
  " experienced": 4773,
  " football": 4774,
  "owl": 4775,
  " Robert": 4776,
  " Conference": 4777,
  " truly": 4778,
  " becoming": 4779,
  " projects": 4780,
  "Why": 4781,
  " annual": 4782,
  " documents": 4783,
  "From": 4784,
  " bodies": 4785,
  " diss": 4786,
  " Scot": 4787,
  "alax": 4788,
  " tissue": 4789,
  " helping": 4790,
  " flat": 4791,
  " resources": 4792,
  "Pe": 4793,
  " controvers": 4794,
  " basically": 4795,
  " expression": 4796,
  " operation": 4797,
  " nuclear": 4798,
  "ctic": 4799,
  "pected": 4800,
  "ka": 4801,
  " piece": 4802,
  " Government": 4803,
  "ancy": 4804,
  "ustr": 4805,
  " cars": 4806,
  "â.": 4807,
  " People": 4808,
  " bigger": 4809,
  " GOP": 4810,
  " solution": 4811,
  " prison": 4812,
  " construction": 4813,
  "van": 4814,
  " advance": 4815,
  " throw": 4816,
  " teach": 4817,
  "olt": 4818,
  "ext": 4819,
  " Jay": 4820,
  "umes": 4821,
  " Power": 4822,
  " satis": 4823,
  "liament": 4824,
  " san": 4825,
  " Christian": 4826,
  " Yes": 4827,
  " insurance": 4828,
  " Mal": 4829,
  " chann": 4830,
  "ensen": 4831,
  " anxiety": 4832,
  "=\"": 4833,
  " allocator": 4834,
  "resp": 4835,
  " Lou": 4836,
  "anted": 4837,
  " remaining": 4838,
  " liberal": 4839,
  "part": 4840,
  "atically": 4841,
  " stim": 4842,
  " learned": 4843,
  " CEO": 4844,
  "uters": 4845,
  "ycle": 4846,
  " Justice": 4847,
  " tweet": 4848,
  " nor": 4849,
  " protection": 4850,
  " Ac": 4851,
  " expensive": 4852,
  "iance": 4853,
  "Pro": 4854,
  " detect": 4855,
  " Mount": 4856,
  " agencies": 4857,
  " Hot": 4858,
  "verse": 4859,
  " context": 4860,
  " rates": 4861,
  " suc": 4862,
  " Columbia": 4863,
  "vention": 4864,
  " PM": 4865,
  " Diego": 4866,
  " Bay": 4867,
  " Inc": 4868,
  " raise": 4869,
  "ruption": 4870,
  " developing": 4871,
  " graph": 4872,
  " Iran": 4873,
  " completed": 4874,
  " lands": 4875,
  " sector": 4876,
  "ttps": 4877,
  " equipment": 4878,
  "etroit": 4879,
  " atmosphere": 4880,
  " herit": 4881,
  " tools": 4882,
  " Social": 4883,
  " Engineering": 4884,
  "iterator": 4885,
  " Cor": 4886,
  " Western": 4887,
  "asks": 4888,
  " Paris": 4889,
  " strateg": 4890,
  " basis": 4891,
  " nine": 4892,
  "IT": 4893,
  " downtown": 4894,
  "rep": 4895,
  " wealth": 4896,
  " division": 4897,
  " AP": 4898,
  " supported": 4899,
  " circum": 4900,
  " activities": 4901,
  " holding": 4902,
  " core": 4903,
  "ressive": 4904,
  " Bet": 4905,
  " crisis": 4906,
  "riend": 4907,
  " estimates": 4908,
  "oul": 4909,
  "gypt": 4910,
  "RA": 4911,
  " cru": 4912,
  " relatively": 4913,
  " Virgin": 4914,
  " Blue": 4915,
  " comparison": 4916,
  " Oregon": 4917,
  " proced": 4918,
  " ON": 4919,
  "ada": 4920,
  "ville": 4921,
  "pay": 4922,
  " Union": 4923,
  " phil": 4924,
  "ya": 4925,
  "aste": 4926,
  " Berlin": 4927,
  " tag": 4928,
  " chemical": 4929,
  " beer": 4930,
  " Pi": 4931,
  "gian": 4932,
  " ang": 4933,
  "cont": 4934,
  "class": 4935,
  "Dr": 4936,
  " videos": 4937,
  " Sup": 4938,
  "hat": 4939,
  " served": 4940,
  " General": 4941,
  " der": 4942,
  "aks": 4943,
  "onic": 4944,
  " participants": 4945,
  "agement": 4946,
  "cho": 4947,
  " concerns": 4948,
  " defend": 4949,
  " benefit": 4950,
  " solar": 4951,
  " allowing": 4952,
  " Us": 4953,
  "place": 4954,
  " error": 4955,
  " none": 4956,
  " justice": 4957,
  "ideo": 4958,
  " predict": 4959,
  " figh": 4960,
  " methods": 4961,
  " dismiss": 4962,
  " discussed": 4963,
  "ios": 4964,
  " therefore": 4965,
  " Franc": 4966,
  "ker": 4967,
  " unit": 4968,
  " finish": 4969,
  " records": 4970,
  " cook": 4971,
  "pret": 4972,
  "bour": 4973,
  "atism": 4974,
  " regist": 4975,
  " explicit": 4976,
  "itc": 4977,
  "HD": 4978,
  " discovered": 4979,
  "eneration": 4980,
  "))": 4981,
  " mole": 4982,
  " designers": 4983,
  " Mort": 4984,
  ";\n\n": 4985,
  " spokesman": 4986,
  " luck": 4987,
  " spoke": 4988,
  "esterday": 4989,
  " winning": 4990,
  " older": 4991,
  "umn": 4992,
  "IG": 4993,
  " affected": 4994,
  " performed": 4995,
  " Kr": 4996,
  "vest": 4997,
  " apparently": 4998,
  "anges": 4999,
  " expert": 5000,
  " providing": 5001,
  "TS": 5002,
  " surface": 5003,
  " length": 5004,
  " Your": 5005,
  " choose": 5006,
  " authors": 5007,
  " *": 5008,
  "going": 5009,
  " bomb": 5010,
  "',": 5011,
  " figures": 5012,
  " arrived": 5013,
  " afford": 5014,
  "wing": 5015,
  "azine": 5016,
  " universe": 5017,
  " Many": 5018,
  " please": 5019,
  " Daily": 5020,
  " relevant": 5021,
  "care": 5022,
  " faster": 5023,
  " pic": 5024,
  " explanation": 5025,
  " Image": 5026,
  " feels": 5027,
  " smaller": 5028,
  " Church": 5029,
  " spirit": 5030,
  "gorithm": 5031,
  "roid": 5032,
  "Qu": 5033,
  " purchase": 5034,
  "NC": 5035,
  "Paul": 5036,
  " novel": 5037,
  " immune": 5038,
  "alaxy": 5039,
  " Water": 5040,
  "lynom": 5041,
  "nel": 5042,
  "coming": 5043,
  "icip": 5044,
  " Braz": 5045,
  " prosecut": 5046,
  " Lake": 5047,
  " unp": 5048,
  "weight": 5049,
  "Every": 5050,
  " Senate": 5051,
  " map": 5052,
  "but": 5053,
  " revenue": 5054,
  "ini": 5055,
  " actions": 5056,
  " inqu": 5057,
  "suit": 5058,
  " compil": 5059,
  " Web": 5060,
  "rad": 5061,
  "ws": 5062,
  " destroy": 5063,
  " negoti": 5064,
  " Jew": 5065,
  " argue": 5066,
  " odd": 5067,
  "opy": 5068,
  " typically": 5069,
  " Study": 5070,
  " Mil": 5071,
  " cove": 5072,
  " factor": 5073,
  "ography": 5074,
  " Date": 5075,
  " believes": 5076,
  " Secretary": 5077,
  " Dist": 5078,
  " sports": 5079,
  "ocracy": 5080,
  " Bre": 5081,
  " acquis": 5082,
  " combined": 5083,
  ",[": 5084,
  " equal": 5085,
  "More": 5086,
  "ffered": 5087,
  " Oh": 5088,
  "arrow": 5089,
  " victory": 5090,
  " award": 5091,
  "?â\n\n": 5092,
  " wins": 5093,
  " rat": 5094,
  " watching": 5095,
  " hate": 5096,
  " Jon": 5097,
  "acity": 5098,
  " van": 5099,
  " Plan": 5100,
  " street": 5101,
  " subm": 5102,
  "fit": 5103,
  "Although": 5104,
  " conflict": 5105,
  " treated": 5106,
  " display": 5107,
  "ocal": 5108,
  " vulner": 5109,
  " domin": 5110,
  " Â£": 5111,
  " surround": 5112,
  " NASA": 5113,
  " System": 5114,
  " picture": 5115,
  "ils": 5116,
  " valid": 5117,
  " Holl": 5118,
  " absolutely": 5119,
  " Virginia": 5120,
  " reli": 5121,
  "iments": 5122,
  " Jersey": 5123,
  " establish": 5124,
  " Add": 5125,
  " helps": 5126,
  " comfort": 5127,
  " lawyer": 5128,
  "ache": 5129,
  " Lee": 5130,
  "how": 5131,
  " filed": 5132,
  " beaut": 5133,
  " bab": 5134,
  "ica": 5135,
  "arry": 5136,
  " Detroit": 5137,
  "cean": 5138,
  " requirements": 5139,
  " gaming": 5140,
  " neuro": 5141,
  "')": 5142,
  "NN": 5143,
  " doctor": 5144,
  " lots": 5145,
  " closer": 5146,
  " roughly": 5147,
  "Just": 5148,
  " independent": 5149,
  " Jose": 5150,
  "makers": 5151,
  " wit": 5152,
  "azing": 5153,
  " College": 5154,
  " Out": 5155,
  " putting": 5156,
  " thanks": 5157,
  " Like": 5158,
  " managed": 5159,
  " losing": 5160,
  " driver": 5161,
  " location": 5162,
  " weather": 5163,
  " standing": 5164,
  " Ms": 5165,
  " resist": 5166,
  " Middle": 5167,
  "inent": 5168,
  " competition": 5169,
  " worry": 5170,
  " Ash": 5171,
  "Related": 5172,
  " episode": 5173,
  " wish": 5174,
  " animal": 5175,
  "ears": 5176,
  "sts": 5177,
  "imately": 5178,
  "isation": 5179,
  "uit": 5180,
  " emails": 5181,
  " mental": 5182,
  " Cult": 5183,
  "rary": 5184,
  " device": 5185,
  "phant": 5186,
  " featured": 5187,
  " Zeal": 5188,
  " sugar": 5189,
  " excited": 5190,
  " arms": 5191,
  " eye": 5192,
  " plants": 5193,
  " Wales": 5194,
  " hoc": 5195,
  " layer": 5196,
  "mpt": 5197,
  " Raid": 5198,
  " Bitcoin": 5199,
  "arkar": 5200,
  " missing": 5201,
  " trick": 5202,
  " suffered": 5203,
  "owed": 5204,
  "inct": 5205,
  "riz": 5206,
  "ansas": 5207,
  " thinks": 5208,
  "rors": 5209,
  " cry": 5210,
  "iat": 5211,
  " presence": 5212,
  "icated": 5213,
  " Supreme": 5214,
  "Ar": 5215,
  " appoint": 5216,
  " sleep": 5217,
  " Both": 5218,
  " Sl": 5219,
  " involve": 5220,
  "game": 5221,
  " twice": 5222,
  " enforcement": 5223,
  " catch": 5224,
  " obt": 5225,
  "TER": 5226,
  " banks": 5227,
  " falling": 5228,
  " Card": 5229,
  " prefer": 5230,
  "pass": 5231,
  "enger": 5232,
  " Central": 5233,
  " accused": 5234,
  "Red": 5235,
  " Step": 5236,
  "ologist": 5237,
  " occup": 5238,
  " Fre": 5239,
  " Egypt": 5240,
  " joined": 5241,
  " Atl": 5242,
  " Def": 5243,
  " driving": 5244,
  " weren": 5245,
  " tough": 5246,
  " Two": 5247,
  " Since": 5248,
  " murder": 5249,
  " eat": 5250,
  "orders": 5251,
  "employment": 5252,
  " prices": 5253,
  " Once": 5254,
  " pieces": 5255,
  " causes": 5256,
  " born": 5257,
  " Mary": 5258,
  " finished": 5259,
  " spect": 5260,
  "season": 5261,
  " exception": 5262,
  " learning": 5263,
  "icial": 5264,
  " buildings": 5265,
  " profession": 5266,
  " Rub": 5267,
  " Scottish": 5268,
  " acquired": 5269,
  "DP": 5270,
  " patch": 5271,
  "cular": 5272,
  " Weiss": 5273,
  " initially": 5274,
  "igan": 5275,
  " positions": 5276,
  "ros": 5277,
  "works": 5278,
  " introduced": 5279,
  "Of": 5280,
  " hat": 5281,
  " Ont": 5282,
  "onto": 5283,
  " max": 5284,
  " Instead": 5285,
  " owner": 5286,
  "with": 5287,
  "house": 5288,
  " carbon": 5289,
  " DC": 5290,
  " readers": 5291,
  " click": 5292,
  " combination": 5293,
  "inet": 5294,
  "standing": 5295,
  " healthy": 5296,
  " funds": 5297,
  " Commun": 5298,
  " handling": 5299,
  " pulled": 5300,
  "erved": 5301,
  "hedul": 5302,
  " Rev": 5303,
  " dress": 5304,
  " glass": 5305,
  " Davis": 5306,
  "enture": 5307,
  " GM": 5308,
  " Israeli": 5309,
  " centre": 5310,
  " ISIS": 5311,
  " cuts": 5312,
  " train": 5313,
  " iter": 5314,
  "TI": 5315,
  " FC": 5316,
  " Public": 5317,
  "acle": 5318,
  " laugh": 5319,
  " confidence": 5320,
  "ura": 5321,
  " developers": 5322,
  "hi": 5323,
  " rein": 5324,
  "rible": 5325,
  "hips": 5326,
  " Andrew": 5327,
  " empt": 5328,
  " seasons": 5329,
  " Scotland": 5330,
  "ifications": 5331,
  "rose": 5332,
  "ordin": 5333,
  " relief": 5334,
  "west": 5335,
  "Our": 5336,
  " optim": 5337,
  " defe": 5338,
  " neighborhood": 5339,
  " guns": 5340,
  " direction": 5341,
  " fant": 5342,
  " internal": 5343,
  " pool": 5344,
  " determine": 5345,
  "uing": 5346,
  " Journal": 5347,
  " false": 5348,
  " Mos": 5349,
  "Ab": 5350,
  " Internet": 5351,
  " Are": 5352,
  "icide": 5353,
  " schedul": 5354,
  " images": 5355,
  " sch": 5356,
  "onym": 5357,
  "found": 5358,
  "orry": 5359,
  "edd": 5360,
  " hasn": 5361,
  "kins": 5362,
  "DC": 5363,
  " sun": 5364,
  " Mad": 5365,
  " implic": 5366,
  " selected": 5367,
  " fundament": 5368,
  "iqu": 5369,
  " NB": 5370,
  " causing": 5371,
  " kid": 5372,
  " Lowen": 5373,
  " attend": 5374,
  "abilities": 5375,
  "arn": 5376,
  " shift": 5377,
  " significantly": 5378,
  " Tai": 5379,
  " residents": 5380,
  " Rh": 5381,
  "Europe": 5382,
  "twitter": 5383,
  " install": 5384,
  "amsung": 5385,
  " conservatism": 5386,
  "iox": 5387,
  "Res": 5388,
  " Martin": 5389,
  "def": 5390,
  " harm": 5391,
  " union": 5392,
  " ran": 5393,
  "Even": 5394,
  " repeated": 5395,
  " hair": 5396,
  "cription": 5397,
  " suggested": 5398,
  " Ryan": 5399,
  " businesses": 5400,
  " telling": 5401,
  " hun": 5402,
  "Jo": 5403,
  " sounds": 5404,
  " Leg": 5405,
  " Hy": 5406,
  " Att": 5407,
  " tempor": 5408,
  " Inter": 5409,
  " updates": 5410,
  " academic": 5411,
  " visual": 5412,
  " mi": 5413,
  " obviously": 5414,
  " aside": 5415,
  " withd": 5416,
  " sem": 5417,
  " remind": 5418,
  " substant": 5419,
  " literature": 5420,
  "cific": 5421,
  "phy": 5422,
  "www": 5423,
  " offering": 5424,
  "ulf": 5425,
  " Tim": 5426,
  " bed": 5427,
  " excl": 5428,
  "Pol": 5429,
  " unlikely": 5430,
  " covered": 5431,
  "razy": 5432,
  " soci": 5433,
  "SF": 5434,
  "ikh": 5435,
  " philos": 5436,
  " satisf": 5437,
  "oty": 5438,
  " Press": 5439,
  "ardian": 5440,
  " scored": 5441,
  " coffe": 5442,
  "mas": 5443,
  "ariju": 5444,
  "arijuana": 5445,
  " races": 5446,
  " mechanism": 5447,
  " dogmat": 5448,
  " Savarkar": 5449,
  " polynom": 5450,
  "effs": 5451,
  "asp": 5452,
  " island": 5453,
  " Carolina": 5454,
  " supporters": 5455,
  "ossible": 5456,
  "First": 5457,
  " Stone": 5458,
  " bringing": 5459,
  " wave": 5460,
  "ashion": 5461,
  " totally": 5462,
  " Ontario": 5463,
  " Toronto": 5464,
  " cash": 5465,
  " supporting": 5466,
  " planning": 5467,
  " handle": 5468,
  "idden": 5469,
  " talked": 5470,
  " necessarily": 5471,
  " mere": 5472,
  "rick": 5473,
  " Up": 5474,
  " vir": 5475,
  " fif": 5476,
  " Gi": 5477,
  " Lib": 5478,
  " driven": 5479,
  "oration": 5480,
  " rapid": 5481,
  " adjust": 5482,
  " army": 5483,
  "Despite": 5484,
  " Palest": 5485,
  "cers": 5486,
  " motiv": 5487,
  " comic": 5488,
  " Who": 5489,
  " papers": 5490,
  "iously": 5491,
  " underst": 5492,
  "paper": 5493,
  "OL": 5494,
  " gri": 5495,
  " changing": 5496,
  " carried": 5497,
  " cancer": 5498,
  " Open": 5499,
  " dial": 5500,
  " acquisition": 5501,
  " recognition": 5502,
  "TA": 5503,
  " Matt": 5504,
  ".\"[": 5505,
  " marketing": 5506,
  " ordered": 5507,
  "noon": 5508,
  "lies": 5509,
  " severe": 5510,
  "dden": 5511,
  " pled": 5512,
  " mayor": 5513,
  "omin": 5514,
  "ronic": 5515,
  " deliver": 5516,
  " gar": 5517,
  " electric": 5518,
  " Mag": 5519,
  " cold": 5520,
  "des": 5521,
  " committed": 5522,
  " Business": 5523,
  "effect": 5524,
  "iest": 5525,
  " starts": 5526,
  " establ": 5527,
  " intended": 5528,
  "ortion": 5529,
  "map": 5530,
  " southern": 5531,
  " stream": 5532,
  " flu": 5533,
  "that": 5534,
  " insp": 5535,
  " flow": 5536,
  " Dec": 5537,
  " adults": 5538,
  " opposed": 5539,
  " effectively": 5540,
  "udd": 5541,
  " importance": 5542,
  " emergency": 5543,
  "ontinu": 5544,
  " greater": 5545,
  "anged": 5546,
  "acement": 5547,
  " responses": 5548,
  "uts": 5549,
  "iot": 5550,
  " Jim": 5551,
  " expand": 5552,
  " Den": 5553,
  " Prem": 5554,
  "efully": 5555,
  " forms": 5556,
  " Please": 5557,
  "His": 5558,
  ",\n\n": 5559,
  "rim": 5560,
  ",'": 5561,
  "bits": 5562,
  " HC": 5563,
  "bel": 5564,
  " sport": 5565,
  "mm": 5566,
  "char": 5567,
  " Chief": 5568,
  " afternoon": 5569,
  " Louis": 5570,
  " evening": 5571,
  "phas": 5572,
  " African": 5573,
  " princ": 5574,
  " filled": 5575,
  " ded": 5576,
  "ING": 5577,
  " CO": 5578,
  " Carl": 5579,
  "â\n\n": 5580,
  " widely": 5581,
  " replaced": 5582,
  " possibly": 5583,
  " domest": 5584,
  " Direct": 5585,
  " transition": 5586,
  " observed": 5587,
  "].\n\n": 5588,
  " declared": 5589,
  "ivered": 5590,
  " Bloom": 5591,
  " fairly": 5592,
  " runs": 5593,
  " Sal": 5594,
  " pages": 5595,
  " hurt": 5596,
  "active": 5597,
  " controls": 5598,
  " criticism": 5599,
  " Prof": 5600,
  "abled": 5601,
  " assemb": 5602,
  "utation": 5603,
  "oma": 5604,
  " Walk": 5605,
  "aire": 5606,
  " Catholic": 5607,
  " shouldn": 5608,
  " wel": 5609,
  " Has": 5610,
  " Any": 5611,
  "const": 5612,
  "AL": 5613,
  "idering": 5614,
  "eros": 5615,
  " express": 5616,
  "sole": 5617,
  "DR": 5618,
  "chain": 5619,
  "('": 5620,
  "ipy": 5621,
  " poles": 5622,
  " doctors": 5623,
  " returned": 5624,
  " transport": 5625,
  "People": 5626,
  " seek": 5627,
  " challenges": 5628,
  "osen": 5629,
  " prove": 5630,
  " honest": 5631,
  "rig": 5632,
  "ita": 5633,
  "itect": 5634,
  " witness": 5635,
  "ads": 5636,
  " stronger": 5637,
  "esome": 5638,
  " Tem": 5639,
  " vision": 5640,
  " replace": 5641,
  " bra": 5642,
  " sides": 5643,
  "Pl": 5644,
  " earn": 5645,
  "uzz": 5646,
  " chair": 5647,
  " intent": 5648,
  " defined": 5649,
  " experts": 5650,
  " classic": 5651,
  " fired": 5652,
  " broadcast": 5653,
  " located": 5654,
  ".â": 5655,
  " script": 5656,
  "overy": 5657,
  " stimul": 5658,
  " consequ": 5659,
  " daughter": 5660,
  "BS": 5661,
  "cons": 5662,
  " writes": 5663,
  " turns": 5664,
  "olis": 5665,
  " Indust": 5666,
  " Jack": 5667,
  " yes": 5668,
  " sea": 5669,
  " tech": 5670,
  " Today": 5671,
  " Emb": 5672,
  " Sing": 5673,
  "hetic": 5674,
  " appre": 5675,
  " Author": 5676,
  ",â": 5677,
  "PS": 5678,
  "iveness": 5679,
  " contains": 5680,
  " determined": 5681,
  " conver": 5682,
  " medicine": 5683,
  "asy": 5684,
  " penal": 5685,
  "orage": 5686,
  " interpret": 5687,
  "oes": 5688,
  " proposals": 5689,
  " apps": 5690,
  " vast": 5691,
  " Ther": 5692,
  " attitude": 5693,
  "adium": 5694,
  " coffee": 5695,
  "erate": 5696,
  " nations": 5697,
  " resident": 5698,
  " Associ": 5699,
  "mptoms": 5700,
  "rome": 5701,
  " matrix": 5702,
  "\"]": 5703,
  "respond": 5704,
  " uns": 5705,
  " rid": 5706,
  " signs": 5707,
  " automatic": 5708,
  " contest": 5709,
  " revolution": 5710,
  " hus": 5711,
  " fuel": 5712,
  "pective": 5713,
  " surprise": 5714,
  " contrast": 5715,
  "enced": 5716,
  "udge": 5717,
  " matching": 5718,
  " flag": 5719,
  " advert": 5720,
  "rog": 5721,
  " fellow": 5722,
  " compare": 5723,
  " trouble": 5724,
  "Over": 5725,
  " Brad": 5726,
  " Media": 5727,
  "ributed": 5728,
  "CR": 5729,
  " sky": 5730,
  " clim": 5731,
  " originally": 5732,
  " territ": 5733,
  "po": 5734,
  "math": 5735,
  " bunch": 5736,
  " pal": 5737,
  "iation": 5738,
  "uations": 5739,
  " steps": 5740,
  " http": 5741,
  " rich": 5742,
  " accident": 5743,
  "gers": 5744,
  " secure": 5745,
  " personality": 5746,
  "edia": 5747,
  " happening": 5748,
  " Spr": 5749,
  " trail": 5750,
  " sick": 5751,
  "inte": 5752,
  " reform": 5753,
  " restrict": 5754,
  " sust": 5755,
  "abric": 5756,
  " retire": 5757,
  " surve": 5758,
  "gl": 5759,
  "essel": 5760,
  " Italy": 5761,
  "LO": 5762,
  " Psych": 5763,
  " Roberts": 5764,
  " template": 5765,
  "\":": 5766,
  " Ã": 5767,
  "coeffs": 5768,
  "ombat": 5769,
  " datab": 5770,
  " injuries": 5771,
  " sudden": 5772,
  " Kat": 5773,
  " confident": 5774,
  " expressed": 5775,
  " agend": 5776,
  " reaction": 5777,
  ".'": 5778,
  " Di": 5779,
  "arant": 5780,
  " yell": 5781,
  " interactions": 5782,
  "AB": 5783,
  " Cast": 5784,
  " Cle": 5785,
  " manner": 5786,
  " Ter": 5787,
  " infrast": 5788,
  " radical": 5789,
  "cel": 5790,
  " established": 5791,
  " Thus": 5792,
  " immediate": 5793,
  "oving": 5794,
  " responded": 5795,
  " files": 5796,
  " explo": 5797,
  " agent": 5798,
  "icism": 5799,
  " Color": 5800,
  "ource": 5801,
  " flight": 5802,
  " pictures": 5803,
  " View": 5804,
  "],": 5805,
  " abuse": 5806,
  "ugh": 5807,
  "bal": 5808,
  " delivered": 5809,
  " Conserv": 5810,
  " giant": 5811,
  " active": 5812,
  " din": 5813,
  " mistake": 5814,
  " elimin": 5815,
  " Cost": 5816,
  " represents": 5817,
  " consumer": 5818,
  " coeff": 5819,
  " Camp": 5820,
  " warned": 5821,
  " sad": 5822,
  " diet": 5823,
  " Techn": 5824,
  " Stan": 5825,
  " instruct": 5826,
  " Mont": 5827,
  " consult": 5828,
  "fig": 5829,
  " district": 5830,
  " editor": 5831,
  " holds": 5832,
  "kay": 5833,
  " Ole": 5834,
  " Miami": 5835,
  " capable": 5836,
  " faces": 5837,
  "rend": 5838,
  "aran": 5839,
  "Photo": 5840,
  "ula": 5841,
  "da": 5842,
  "iled": 5843,
  " Android": 5844,
  "aints": 5845,
  "anish": 5846,
  " McK": 5847,
  " renew": 5848,
  "Follow": 5849,
  " Gree": 5850,
  " label": 5851,
  " scoring": 5852,
  "uration": 5853,
  " animals": 5854,
  " UFC": 5855,
  " Annual": 5856,
  "adero": 5857,
  "Ned": 5858,
  " Kombat": 5859,
  " Gen": 5860,
  " Bern": 5861,
  " ride": 5862,
  " tasks": 5863,
  " approval": 5864,
  " desper": 5865,
  " stun": 5866,
  " Again": 5867,
  " innov": 5868,
  " surprising": 5869,
  " concert": 5870,
  " Kingdom": 5871,
  " grab": 5872,
  " Cap": 5873,
  " Pri": 5874,
  " vice": 5875,
  " ble": 5876,
  " seconds": 5877,
  "mun": 5878,
  "ris": 5879,
  "fl": 5880,
  " brows": 5881,
  " vs": 5882,
  "asure": 5883,
  " circumst": 5884,
  " seriously": 5885,
  " broken": 5886,
  "CH": 5887,
  " element": 5888,
  " sitting": 5889,
  " scheduled": 5890,
  "uls": 5891,
  " organizations": 5892,
  " Syrian": 5893,
  " YouT": 5894,
  " targeted": 5895,
  " targets": 5896,
  "gn": 5897,
  "riage": 5898,
  " selling": 5899,
  "han": 5900,
  " magazine": 5901,
  " Under": 5902,
  " represented": 5903,
  "hand": 5904,
  " tact": 5905,
  " Those": 5906,
  " properly": 5907,
  " initi": 5908,
  " Woman": 5909,
  "eding": 5910,
  " Rock": 5911,
  "rete": 5912,
  "iliar": 5913,
  " fle": 5914,
  " warming": 5915,
  " sees": 5916,
  " wood": 5917,
  "Another": 5918,
  " sample": 5919,
  "ishes": 5920,
  " Ev": 5921,
  " actor": 5922,
  " Steve": 5923,
  " forg": 5924,
  "cks": 5925,
  " herself": 5926,
  " therap": 5927,
  "plex": 5928,
  " switch": 5929,
  " Ell": 5930,
  " cloud": 5931,
  "esh": 5932,
  "atures": 5933,
  "?\"": 5934,
  " wall": 5935,
  " Mot": 5936,
  " combat": 5937,
  " decre": 5938,
  " considering": 5939,
  " placed": 5940,
  "stream": 5941,
  " lin": 5942,
  "itable": 5943,
  " efficient": 5944,
  "ebble": 5945,
  "asser": 5946,
  ".(": 5947,
  "Price": 5948,
  "arcadero": 5949,
  "bmat": 5950,
  "bmatrix": 5951,
  "uated": 5952,
  " stable": 5953,
  "obody": 5954,
  "ront": 5955,
  "rizona": 5956,
  " Id": 5957,
  "hered": 5958,
  " listen": 5959,
  "aza": 5960,
  "ipped": 5961,
  " infrastructure": 5962,
  "ilit": 5963,
  "stro": 5964,
  " phen": 5965,
  " versions": 5966,
  " investment": 5967,
  " leads": 5968,
  "izon": 5969,
  " Jeff": 5970,
  " ties": 5971,
  " opportunities": 5972,
  " activists": 5973,
  " hotel": 5974,
  " rising": 5975,
  " applied": 5976,
  " dream": 5977,
  " younger": 5978,
  " lit": 5979,
  " facing": 5980,
  "TV": 5981,
  " depart": 5982,
  " reduced": 5983,
  "uable": 5984,
  " gold": 5985,
  " AM": 5986,
  " cheap": 5987,
  " imagine": 5988,
  " du": 5989,
  "ensions": 5990,
  " Champ": 5991,
  " Er": 5992,
  " Sum": 5993,
  " forget": 5994,
  "bro": 5995,
  " Zealand": 5996,
  " directed": 5997,
  " tor": 5998,
  " las": 5999,
  "person": 6000,
  " ship": 6001,
  " plenty": 6002,
  " Service": 6003,
  " Pet": 6004,
  "Sp": 6005,
  "osm": 6006,
  " regul": 6007,
  " technical": 6008,
  "itionally": 6009,
  " Samsung": 6010,
  " seed": 6011,
  " supply": 6012,
  "endix": 6013,
  " %": 6014,
  " reporters": 6015,
  " crew": 6016,
  " tom": 6017,
  "gent": 6018,
  " turning": 6019,
  " yesterday": 6020,
  " impossible": 6021,
  " server": 6022,
  " teen": 6023,
  " column": 6024,
  " Barack": 6025,
  "look": 6026,
  " communities": 6027,
  "cript": 6028,
  " capacity": 6029,
  " costume": 6030,
  "ancing": 6031,
  " moments": 6032,
  "whel": 6033,
  " sand": 6034,
  " fly": 6035,
  " gather": 6036,
  " Edu": 6037,
  " vehicles": 6038,
  " attempts": 6039,
  " estimate": 6040,
  " deck": 6041,
  " platforms": 6042,
  " devices": 6043,
  " Time": 6044,
  " bul": 6045,
  " shoulder": 6046,
  " decide": 6047,
  " advanced": 6048,
  " approximately": 6049,
  " aircraft": 6050,
  "uilding": 6051,
  "abel": 6052,
  " flash": 6053,
  "sm": 6054,
  " tight": 6055,
  " curren": 6056,
  "serv": 6057,
  " spr": 6058,
  "Donald": 6059,
  " concent": 6060,
  " Jo": 6061,
  " corporate": 6062,
  "Am": 6063,
  " react": 6064,
  " extensive": 6065,
  " Another": 6066,
  " Conc": 6067,
  " abandon": 6068,
  "alys": 6069,
  "ographic": 6070,
  "tion": 6071,
  " housing": 6072,
  " appreci": 6073,
  " Francisco": 6074,
  "West": 6075,
  " spons": 6076,
  " Ped": 6077,
  " Chap": 6078,
  " university": 6079,
  " Hard": 6080,
  " Long": 6081,
  " crazy": 6082,
  " greatest": 6083,
  " Advanced": 6084,
  " pock": 6085,
  " pray": 6086,
  " philosoph": 6087,
  " copyright": 6088,
  "vis": 6089,
  " withdraw": 6090,
  " emp": 6091,
  " films": 6092,
  " transl": 6093,
  " famous": 6094,
  " materials": 6095,
  " Stein": 6096,
  "etal": 6097,
  "Last": 6098,
  " Therap": 6099,
  " picked": 6100,
  " component": 6101,
  "gment": 6102,
  " Sk": 6103,
  " marijuana": 6104,
  " ES": 6105,
  "ava": 6106,
  " Bowl": 6107,
  "vector": 6108,
  "step": 6109,
  "reens": 6110,
  "amm": 6111,
  "acter": 6112,
  "poly": 6113,
  " config": 6114,
  "bul": 6115,
  "achine": 6116,
  "begin": 6117,
  "Object": 6118,
  " \\),": 6119,
  " scipy": 6120,
  " resc": 6121,
  "run": 6122,
  " hopes": 6123,
  " declined": 6124,
  " Arizona": 6125,
  " husband": 6126,
  " package": 6127,
  " closely": 6128,
  " Lat": 6129,
  " winner": 6130,
  "acking": 6131,
  " architect": 6132,
  "ackson": 6133,
  " guil": 6134,
  " Seattle": 6135,
  " detailed": 6136,
  "war": 6137,
  " Design": 6138,
  "imal": 6139,
  " removed": 6140,
  " keeps": 6141,
  "ram": 6142,
  "ius": 6143,
  "pdate": 6144,
  " advis": 6145,
  " connections": 6146,
  " comprom": 6147,
  "Other": 6148,
  "Many": 6149,
  " Each": 6150,
  " maintain": 6151,
  " frequently": 6152,
  " chart": 6153,
  "orse": 6154,
  " category": 6155,
  "TM": 6156,
  " sweet": 6157,
  " identify": 6158,
  " rain": 6159,
  " east": 6160,
  "ection": 6161,
  "ayne": 6162,
  "roud": 6163,
  "itors": 6164,
  " window": 6165,
  " Fire": 6166,
  "ourney": 6167,
  " heavily": 6168,
  " describe": 6169,
  " statist": 6170,
  " variables": 6171,
  " reducing": 6172,
  "See": 6173,
  "water": 6174,
  " Southern": 6175,
  "Can": 6176,
  "NY": 6177,
  " diseases": 6178,
  " threats": 6179,
  " talent": 6180,
  "Most": 6181,
  " lobby": 6182,
  "hibition": 6183,
  " gotten": 6184,
  " Year": 6185,
  " funny": 6186,
  " taxpay": 6187,
  " legislation": 6188,
  " pra": 6189,
  " Gar": 6190,
  " founded": 6191,
  "bin": 6192,
  "icken": 6193,
  " shap": 6194,
  " sequ": 6195,
  " airport": 6196,
  " blocks": 6197,
  " Lawrence": 6198,
  " ID": 6199,
  "illy": 6200,
  " reasonable": 6201,
  " stem": 6202,
  " Australian": 6203,
  " sets": 6204,
  " owned": 6205,
  " Inte": 6206,
  " enh": 6207,
  " Biology": 6208,
  " Dall": 6209,
  " rifle": 6210,
  "sort": 6211,
  "edef": 6212,
  " Embarcadero": 6213,
  " secretary": 6214,
  " refused": 6215,
  "ician": 6216,
  " chosen": 6217,
  " zero": 6218,
  " closed": 6219,
  " Mo": 6220,
  " communications": 6221,
  " hoping": 6222,
  " flood": 6223,
  " clothes": 6224,
  " amazing": 6225,
  " awesome": 6226,
  " decisions": 6227,
  "ocol": 6228,
  " default": 6229,
  " thoughts": 6230,
  " Top": 6231,
  " lived": 6232,
  " spring": 6233,
  " bare": 6234,
  " thank": 6235,
  "roll": 6236,
  "ux": 6237,
  " Back": 6238,
  " transp": 6239,
  "LAY": 6240,
  " Rad": 6241,
  " Austin": 6242,
  " west": 6243,
  " walking": 6244,
  " volume": 6245,
  " YouTube": 6246,
  "Sec": 6247,
  "net": 6248,
  " indeed": 6249,
  " tow": 6250,
  " politicians": 6251,
  "eless": 6252,
  " surprised": 6253,
  "icon": 6254,
  "ican": 6255,
  "lines": 6256,
  " anymore": 6257,
  "FP": 6258,
  " unus": 6259,
  " familiar": 6260,
  " assass": 6261,
  "rently": 6262,
  "App": 6263,
  "ingu": 6264,
  " struct": 6265,
  " excell": 6266,
  " discontinu": 6267,
  " Federal": 6268,
  "ours": 6269,
  " reference": 6270,
  " Mel": 6271,
  " Wisc": 6272,
  " Wiscons": 6273,
  " Wisconsin": 6274,
  " storage": 6275,
  " Energy": 6276,
  " Euro": 6277,
  " debt": 6278,
  " yield": 6279,
  "alia": 6280,
  " elected": 6281,
  " Taiwan": 6282,
  " bag": 6283,
  " personally": 6284,
  " movies": 6285,
  " voted": 6286,
  " writer": 6287,
  "ppers": 6288,
  "phones": 6289,
  "ompl": 6290,
  "Well": 6291,
  " temperature": 6292,
  " Spanish": 6293,
  " Han": 6294,
  " Exper": 6295,
  " tackle": 6296,
  "UR": 6297,
  " soldiers": 6298,
  "CL": 6299,
  " Follow": 6300,
  "ellect": 6301,
  " Ky": 6302,
  " Pebble": 6303,
  " root": 6304,
  " engineering": 6305,
  "azon": 6306,
  " Dallas": 6307,
  "Ã¸": 6308,
  "estObject": 6309,
  " CHD": 6310,
  "aju": 6311,
  " Pad": 6312,
  " arguments": 6313,
  " acknowled": 6314,
  " consistent": 6315,
  " broke": 6316,
  " pit": 6317,
  " artist": 6318,
  " customer": 6319,
  " Div": 6320,
  " visited": 6321,
  " collabor": 6322,
  "long": 6323,
  " overwhel": 6324,
  "under": 6325,
  " enemy": 6326,
  " Read": 6327,
  "upp": 6328,
  " drinking": 6329,
  "elect": 6330,
  " unless": 6331,
  " inquir": 6332,
  " appropriate": 6333,
  "enses": 6334,
  " institut": 6335,
  " impressive": 6336,
  "...\n\n": 6337,
  "ansion": 6338,
  " Rights": 6339,
  " domestic": 6340,
  " killing": 6341,
  " Revolution": 6342,
  " moves": 6343,
  " likes": 6344,
  " remove": 6345,
  "cious": 6346,
  " wearing": 6347,
  " grid": 6348,
  "illed": 6349,
  " Africa": 6350,
  "alo": 6351,
  "CA": 6352,
  "watch": 6353,
  " Right": 6354,
  "world": 6355,
  " apart": 6356,
  " typical": 6357,
  " assistance": 6358,
  " Econom": 6359,
  "icients": 6360,
  " prepared": 6361,
  "During": 6362,
  " LA": 6363,
  "oking": 6364,
  " prompt": 6365,
  " corruption": 6366,
  "lls": 6367,
  " apply": 6368,
  " recorded": 6369,
  " missed": 6370,
  " franch": 6371,
  " Cro": 6372,
  "ande": 6373,
  " filter": 6374,
  " bound": 6375,
  " exposure": 6376,
  "acc": 6377,
  " cup": 6378,
  "Mc": 6379,
  " explicitly": 6380,
  " compens": 6381,
  " Jensen": 6382,
  " Wood": 6383,
  " admit": 6384,
  "gren": 6385,
  " Transl": 6386,
  "useum": 6387,
  " runner": 6388,
  " Pok": 6389,
  "ireless": 6390,
  "space": 6391,
  "='": 6392,
  " GOO": 6393,
  " Appendix": 6394,
  " intrusive": 6395,
  "Edith": 6396,
  " Mortal": 6397,
  " survive": 6398,
  "aver": 6399,
  " anyway": 6400,
  " restaurant": 6401,
  "athan": 6402,
  " Lead": 6403,
  " songs": 6404,
  " slowly": 6405,
  "apping": 6406,
  "hol": 6407,
  " concluded": 6408,
  "pan": 6409,
  " somewhat": 6410,
  "iable": 6411,
  " judge": 6412,
  "ocking": 6413,
  "sign": 6414,
  " bon": 6415,
  " Only": 6416,
  "lymp": 6417,
  " matters": 6418,
  " colleagues": 6419,
  " advice": 6420,
  "isan": 6421,
  " Wind": 6422,
  "IR": 6423,
  " Soft": 6424,
  " injury": 6425,
  " exciting": 6426,
  " correlation": 6427,
  "friend": 6428,
  " moon": 6429,
  "earing": 6430,
  " speaking": 6431,
  " begins": 6432,
  " immigration": 6433,
  " resolution": 6434,
  " perman": 6435,
  " Jewish": 6436,
  "state": 6437,
  " Cup": 6438,
  " practical": 6439,
  " lawsuit": 6440,
  " joint": 6441,
  " truck": 6442,
  "otes": 6443,
  "law": 6444,
  " marriage": 6445,
  " Ray": 6446,
  " strongly": 6447,
  " examples": 6448,
  " variable": 6449,
  " analyses": 6450,
  "ometimes": 6451,
  " Review": 6452,
  " Rel": 6453,
  "ynam": 6454,
  " drivers": 6455,
  " numerous": 6456,
  " caption": 6457,
  " programming": 6458,
  " newspaper": 6459,
  " married": 6460,
  " ends": 6461,
  " publicly": 6462,
  " guarant": 6463,
  " transform": 6464,
  " hell": 6465,
  " ped": 6466,
  "eties": 6467,
  "iciency": 6468,
  " refe": 6469,
  " sac": 6470,
  " passing": 6471,
  " Hong": 6472,
  " Kong": 6473,
  " ox": 6474,
  " lie": 6475,
  " aspects": 6476,
  " temperatures": 6477,
  "heriff": 6478,
  " camera": 6479,
  " Colorado": 6480,
  "evin": 6481,
  " Merkel": 6482,
  " tested": 6483,
  "itic": 6484,
  " depends": 6485,
  " empty": 6486,
  " qual": 6487,
  " accompl": 6488,
  " subscrib": 6489,
  " recipe": 6490,
  " aver": 6491,
  " ending": 6492,
  " populations": 6493,
  " privacy": 6494,
  " vector": 6495,
  "plus": 6496,
  "gi": 6497,
  "IV": 6498,
  " integrative": 6499,
  "sky": 6500,
  " Translational": 6501,
  "][][][][": 6502,
  "ucks": 6503,
  " marg": 6504,
  " confront": 6505,
  " split": 6506,
  " candidates": 6507,
  " emphas": 6508,
  "aled": 6509,
  " agenda": 6510,
  "anda": 6511,
  " Mic": 6512,
  " acts": 6513,
  " anywhere": 6514,
  " Jackson": 6515,
  "fortunately": 6516,
  "DA": 6517,
  " warm": 6518,
  "illa": 6519,
  "illing": 6520,
  " OS": 6521,
  " protected": 6522,
  " keeping": 6523,
  "â.\n\n": 6524,
  " zone": 6525,
  " connected": 6526,
  " Marc": 6527,
  "mod": 6528,
  "ooth": 6529,
  " village": 6530,
  "itar": 6531,
  "ournament": 6532,
  " mode": 6533,
  " communication": 6534,
  " advertising": 6535,
  " Club": 6536,
  " yards": 6537,
  " Win": 6538,
  " adds": 6539,
  " PLAY": 6540,
  "OV": 6541,
  " articles": 6542,
  " implementation": 6543,
  " Mem": 6544,
  " astr": 6545,
  "arters": 6546,
  "link": 6547,
  " strike": 6548,
  " oppos": 6549,
  "imm": 6550,
  " thick": 6551,
  " boost": 6552,
  " investors": 6553,
  " mort": 6554,
  "American": 6555,
  " convention": 6556,
  " THE": 6557,
  "anche": 6558,
  " virtually": 6559,
  " command": 6560,
  " explos": 6561,
  " returns": 6562,
  " girls": 6563,
  "ensus": 6564,
  " output": 6565,
  "related": 6566,
  " Labor": 6567,
  " coefficients": 6568,
  " prin": 6569,
  "andal": 6570,
  " attended": 6571,
  "oral": 6572,
  " manufacture": 6573,
  " encoun": 6574,
  " buying": 6575,
  " entry": 6576,
  "IP": 6577,
  " Ok": 6578,
  "dule": 6579,
  " penalty": 6580,
  " deploy": 6581,
  " bench": 6582,
  " Mass": 6583,
  "rier": 6584,
  " suspect": 6585,
  " threatened": 6586,
  " tree": 6587,
  " correspond": 6588,
  " announcement": 6589,
  "etime": 6590,
  "mates": 6591,
  "resa": 6592,
  "OWN": 6593,
  " intellect": 6594,
  " subsequ": 6595,
  " mal": 6596,
  "Ã¼": 6597,
  " unemployment": 6598,
  "olf": 6599,
  " Love": 6600,
  " Gand": 6601,
  "Ã³n": 6602,
  " IL": 6603,
  "bf": 6604,
  "np": 6605,
  " watched": 6606,
  " accepted": 6607,
  "ulous": 6608,
  " rally": 6609,
  " narrow": 6610,
  " immigrants": 6611,
  "arrass": 6612,
  "ashed": 6613,
  " Kansas": 6614,
  " ads": 6615,
  " critics": 6616,
  "Let": 6617,
  " recall": 6618,
  " listening": 6619,
  " household": 6620,
  " appearance": 6621,
  " occasion": 6622,
  " drugs": 6623,
  " beliefs": 6624,
  " unw": 6625,
  "â,": 6626,
  " responsibility": 6627,
  " hyd": 6628,
  " Ve": 6629,
  "ima": 6630,
  " attempted": 6631,
  "adow": 6632,
  "car": 6633,
  "Ind": 6634,
  " rot": 6635,
  " button": 6636,
  " calcul": 6637,
  "everal": 6638,
  " ath": 6639,
  " CP": 6640,
  " properties": 6641,
  " shots": 6642,
  "writ": 6643,
  "Since": 6644,
  " ongoing": 6645,
  " journalists": 6646,
  " stars": 6647,
  " schol": 6648,
  "oric": 6649,
  " anonym": 6650,
  "oked": 6651,
  " welf": 6652,
  " welfare": 6653,
  " hypothes": 6654,
  "rees": 6655,
  " Net": 6656,
  " debut": 6657,
  "USA": 6658,
  " fasc": 6659,
  "lig": 6660,
  " tall": 6661,
  "top": 6662,
  " rely": 6663,
  " excellent": 6664,
  "uous": 6665,
  "rd": 6666,
  " ultimately": 6667,
  " generate": 6668,
  " kinds": 6669,
  " distance": 6670,
  " Project": 6671,
  "ogs": 6672,
  " functionality": 6673,
  " primarily": 6674,
  " Fin": 6675,
  " payments": 6676,
  " formed": 6677,
  " drone": 6678,
  "ns": 6679,
  "iful": 6680,
  " alive": 6681,
  " loved": 6682,
  " breast": 6683,
  "aine": 6684,
  " edge": 6685,
  " sav": 6686,
  " affili": 6687,
  "aqu": 6688,
  "Abs": 6689,
  " flights": 6690,
  "olds": 6691,
  " mine": 6692,
  "ora": 6693,
  "kish": 6694,
  " Theresa": 6695,
  " Exp": 6696,
  "Off": 6697,
  " shif": 6698,
  " Irish": 6699,
  " trees": 6700,
  " punish": 6701,
  "()": 6702,
  " dogmatism": 6703,
  " CNN": 6704,
  "met": 6705,
  " database": 6706,
  " pitch": 6707,
  " essentially": 6708,
  " contributed": 6709,
  " claiming": 6710,
  " Mid": 6711,
  " Second": 6712,
  " Muslims": 6713,
  " voter": 6714,
  "oken": 6715,
  " fol": 6716,
  " promote": 6717,
  " tickets": 6718,
  " resulting": 6719,
  " highlight": 6720,
  " William": 6721,
  " everybody": 6722,
  " founder": 6723,
  " era": 6724,
  "human": 6725,
  " seat": 6726,
  " phenomen": 6727,
  "TH": 6728,
  " complic": 6729,
  " Olymp": 6730,
  "ceived": 6731,
  " lies": 6732,
  " institutions": 6733,
  "MP": 6734,
  "ertainty": 6735,
  " controversial": 6736,
  " confirm": 6737,
  " raising": 6738,
  " Director": 6739,
  " affairs": 6740,
  " Pan": 6741,
  " referred": 6742,
  "itarian": 6743,
  " brings": 6744,
  "xture": 6745,
  " puts": 6746,
  " plastic": 6747,
  " dry": 6748,
  " thin": 6749,
  " promised": 6750,
  "greg": 6751,
  " Bec": 6752,
  " harder": 6753,
  " Sil": 6754,
  "pm": 6755,
  " Palestin": 6756,
  " supports": 6757,
  " Sant": 6758,
  " newly": 6759,
  " producers": 6760,
  " shoulders": 6761,
  " promise": 6762,
  " proud": 6763,
  " regardless": 6764,
  " elsewhere": 6765,
  " Wat": 6766,
  " alongside": 6767,
  " elev": 6768,
  " Wil": 6769,
  " minute": 6770,
  " origin": 6771,
  " accurate": 6772,
  " sam": 6773,
  "specific": 6774,
  "amew": 6775,
  " Ret": 6776,
  " breat": 6777,
  " entered": 6778,
  "opher": 6779,
  " employee": 6780,
  " improved": 6781,
  " champion": 6782,
  " democracy": 6783,
  "emption": 6784,
  " cod": 6785,
  "uj": 6786,
  " multi": 6787,
  "white": 6788,
  " follows": 6789,
  " motion": 6790,
  " fruit": 6791,
  " Book": 6792,
  " Mack": 6793,
  " practices": 6794,
  " NHL": 6795,
  "word": 6796,
  "ported": 6797,
  " cultural": 6798,
  "luding": 6799,
  "Ã¡": 6800,
  "antry": 6801,
  " kills": 6802,
  "endor": 6803,
  " hol": 6804,
  " collection": 6805,
  " Series": 6806,
  "Ã©mon": 6807,
  "Joining": 6808,
  " measurements": 6809,
  " decks": 6810,
  "isk": 6811,
  " compiler": 6812,
  " seals": 6813,
  "Prince": 6814,
  " nurs": 6815,
  " polls": 6816,
  " Roll": 6817,
  " wa": 6818,
  " mob": 6819,
  " extended": 6820,
  " scenes": 6821,
  " thr": 6822,
  " serving": 6823,
  " summ": 6824,
  " ring": 6825,
  " batter": 6826,
  " medium": 6827,
  "Two": 6828,
  "icy": 6829,
  " crimes": 6830,
  " upgr": 6831,
  " retail": 6832,
  "fection": 6833,
  " ($": 6834,
  " Show": 6835,
  "fire": 6836,
  " Oak": 6837,
  " contribute": 6838,
  " allegedly": 6839,
  " emerged": 6840,
  " desk": 6841,
  "quare": 6842,
  " square": 6843,
  "rated": 6844,
  " Conservatives": 6845,
  " Valley": 6846,
  " boss": 6847,
  " adopted": 6848,
  "lers": 6849,
  " apartment": 6850,
  " coalition": 6851,
  " strikes": 6852,
  " powers": 6853,
  "find": 6854,
  "liver": 6855,
  " corner": 6856,
  "lets": 6857,
  "nesota": 6858,
  "rate": 6859,
  " experiments": 6860,
  " row": 6861,
  " regions": 6862,
  "iques": 6863,
  " Josh": 6864,
  "ensity": 6865,
  " characteristics": 6866,
  "Us": 6867,
  "EM": 6868,
  "ywood": 6869,
  " carrying": 6870,
  "anes": 6871,
  " petition": 6872,
  " af": 6873,
  " client": 6874,
  " bid": 6875,
  " somehow": 6876,
  "aling": 6877,
  " veter": 6878,
  " Ear": 6879,
  " episodes": 6880,
  " therapy": 6881,
  "sen": 6882,
  " Jess": 6883,
  "ais": 6884,
  "cape": 6885,
  "bell": 6886,
  " Event": 6887,
  "ogue": 6888,
  " elite": 6889,
  "orne": 6890,
  " dozen": 6891,
  " urban": 6892,
  " existence": 6893,
  " recru": 6894,
  " boys": 6895,
  "yd": 6896,
  " waters": 6897,
  " Royal": 6898,
  " rational": 6899,
  " Marco": 6900,
  " tele": 6901,
  " manage": 6902,
  "OWNLO": 6903,
  "OWNLOAD": 6904,
  " cosm": 6905,
  " biological": 6906,
  " heritability": 6907,
  "etch": 6908,
  " illness": 6909,
  " AD": 6910,
  " Watch": 6911,
  " Larry": 6912,
  "Man": 6913,
  "uint": 6914,
  "alle": 6915,
  " rival": 6916,
  "pon": 6917,
  " upset": 6918,
  " warning": 6919,
  "reams": 6920,
  "BI": 6921,
  " embarrass": 6922,
  " Rush": 6923,
  " denied": 6924,
  " tracks": 6925,
  " stood": 6926,
  " dedicated": 6927,
  "imp": 6928,
  " myster": 6929,
  " fashion": 6930,
  " iron": 6931,
  " Last": 6932,
  " fees": 6933,
  " Offic": 6934,
  " equival": 6935,
  "owered": 6936,
  " constant": 6937,
  "ubs": 6938,
  " circumstances": 6939,
  " locked": 6940,
  " frequency": 6941,
  " suspic": 6942,
  "value": 6943,
  " Global": 6944,
  " grav": 6945,
  " arr": 6946,
  " module": 6947,
  "Cont": 6948,
  " Bell": 6949,
  " opposite": 6950,
  " worried": 6951,
  " bull": 6952,
  " Evil": 6953,
  " stress": 6954,
  "nic": 6955,
  "aug": 6956,
  " ru": 6957,
  "rum": 6958,
  " absor": 6959,
  " youth": 6960,
  " Hig": 6961,
  " route": 6962,
  " mut": 6963,
  "lusion": 6964,
  " Week": 6965,
  " Mir": 6966,
  "feld": 6967,
  " Minnesota": 6968,
  " master": 6969,
  " simult": 6970,
  "Te": 6971,
  " trends": 6972,
  " faced": 6973,
  " ideal": 6974,
  " exposed": 6975,
  " Jac": 6976,
  " comfortable": 6977,
  " hired": 6978,
  " developer": 6979,
  " creative": 6980,
  " allies": 6981,
  " messages": 6982,
  " Duke": 6983,
  " incredibly": 6984,
  "host": 6985,
  "Where": 6986,
  " Walker": 6987,
  "urning": 6988,
  " Parliament": 6989,
  " Grand": 6990,
  " baby": 6991,
  " fra": 6992,
  " Bra": 6993,
  " festival": 6994,
  " terrible": 6995,
  "acked": 6996,
  "utr": 6997,
  " lowest": 6998,
  " roots": 6999,
  " leadership": 7000,
  " Video": 7001,
  " experiences": 7002,
  "ca": 7003,
  " mixed": 7004,
  " unable": 7005,
  "col": 7006,
  " Stephen": 7007,
  " exch": 7008,
  "ognitive": 7009,
  " knowing": 7010,
  " Centre": 7011,
  " Chi": 7012,
  "lynn": 7013,
  "SL": 7014,
  "GB": 7015,
  "urt": 7016,
  " Kings": 7017,
  "idel": 7018,
  " traits": 7019,
  "ardens": 7020,
  " mainly": 7021,
  " compos": 7022,
  "Then": 7023,
  "ahoo": 7024,
  " units": 7025,
  " void": 7026,
  " agric": 7027,
  " agricult": 7028,
  " technologies": 7029,
  " console": 7030,
  " bug": 7031,
  " elephant": 7032,
  " Arm": 7033,
  "Å": 7034,
  " Conway": 7035,
  " DOWNLOAD": 7036,
  "GLE": 7037,
  " MMS": 7038,
  " kat": 7039,
  " kaju": 7040,
  "ââ": 7041,
  " personnel": 7042,
  " assistant": 7043,
  " tomorrow": 7044,
  " reporting": 7045,
  " engineer": 7046,
  " sought": 7047,
  " elections": 7048,
  " terrorist": 7049,
  " errors": 7050,
  " ven": 7051,
  "OM": 7052,
  " collected": 7053,
  " artists": 7054,
  " perfectly": 7055,
  "umble": 7056,
  " wound": 7057,
  " aggress": 7058,
  "ecut": 7059,
  " creation": 7060,
  " Images": 7061,
  " networks": 7062,
  "user": 7063,
  " Reuters": 7064,
  "ikes": 7065,
  "RF": 7066,
  " components": 7067,
  " license": 7068,
  " barely": 7069,
  " qualif": 7070,
  "unte": 7071,
  " percentage": 7072,
  "Get": 7073,
  " Games": 7074,
  " Sign": 7075,
  "mind": 7076,
  " extent": 7077,
  " opponents": 7078,
  " Get": 7079,
  "CP": 7080,
  "eper": 7081,
  " updated": 7082,
  " joke": 7083,
  "ela": 7084,
  " apolog": 7085,
  " assume": 7086,
  " impl": 7087,
  " controlled": 7088,
  " cart": 7089,
  " insist": 7090,
  " Char": 7091,
  " realize": 7092,
  "boy": 7093,
  " heads": 7094,
  " fish": 7095,
  " latter": 7096,
  " studied": 7097,
  " discussions": 7098,
  " Stat": 7099,
  " covering": 7100,
  " assert": 7101,
  " ske": 7102,
  " receiving": 7103,
  "alysis": 7104,
  " Polit": 7105,
  " Pre": 7106,
  " mo": 7107,
  "aii": 7108,
  " pump": 7109,
  " unclear": 7110,
  " depression": 7111,
  " lect": 7112,
  " links": 7113,
  " Profess": 7114,
  "rist": 7115,
  "aws": 7116,
  " authority": 7117,
  " describes": 7118,
  "esters": 7119,
  " decent": 7120,
  " Brian": 7121,
  "edy": 7122,
  " Av": 7123,
  " Premier": 7124,
  " resource": 7125,
  "then": 7126,
  " refuge": 7127,
  "supp": 7128,
  "orted": 7129,
  " statements": 7130,
  " belong": 7131,
  " Fred": 7132,
  " firms": 7133,
  " clients": 7134,
  " entertain": 7135,
  "irty": 7136,
  " overse": 7137,
  " Lyn": 7138,
  "called": 7139,
  "acco": 7140,
  " Kevin": 7141,
  "rimination": 7142,
  " quarterback": 7143,
  " repair": 7144,
  " registered": 7145,
  " assets": 7146,
  "lder": 7147,
  " veget": 7148,
  " escape": 7149,
  "http": 7150,
  "ologists": 7151,
  ").[": 7152,
  " define": 7153,
  " Further": 7154,
  " Brazil": 7155,
  " flex": 7156,
  " Wars": 7157,
  " Ep": 7158,
  "lammat": 7159,
  "lammatory": 7160,
  " psychopath": 7161,
  " PokÃ©mon": 7162,
  "TR": 7163,
  " Land": 7164,
  " extrem": 7165,
  " Xbox": 7166,
  "ante": 7167,
  " immun": 7168,
  " peat": 7169,
  "outer": 7170,
  "ebook": 7171,
  " GOOGLE": 7172,
  " PadÃ©": 7173,
  " zeros": 7174,
  " polynomial": 7175,
  " surger": 7176,
  " disaster": 7177,
  " Daniel": 7178,
  " Bon": 7179,
  "mont": 7180,
  " recount": 7181,
  " Ohio": 7182,
  "arah": 7183,
  "rich": 7184,
  " damaged": 7185,
  " deals": 7186,
  " manufacturing": 7187,
  "olved": 7188,
  " admitted": 7189,
  "NE": 7190,
  " grown": 7191,
  " strange": 7192,
  " guilty": 7193,
  " executives": 7194,
  "ecutive": 7195,
  " Kon": 7196,
  " Company": 7197,
  " governments": 7198,
  " plate": 7199,
  " tiny": 7200,
  " smooth": 7201,
  "star": 7202,
  "ogether": 7203,
  " Tw": 7204,
  "resent": 7205,
  "oves": 7206,
  " termin": 7207,
  " isol": 7208,
  " surrounding": 7209,
  " Wik": 7210,
  " listed": 7211,
  "onna": 7212,
  " snow": 7213,
  "May": 7214,
  " wid": 7215,
  " demonstrate": 7216,
  " visible": 7217,
  "ubb": 7218,
  "ano": 7219,
  " constantly": 7220,
  " wake": 7221,
  "oster": 7222,
  " Coast": 7223,
  " stands": 7224,
  "arted": 7225,
  " designs": 7226,
  "hether": 7227,
  " valuable": 7228,
  " framew": 7229,
  "Dav": 7230,
  "ureau": 7231,
  " champions": 7232,
  " linked": 7233,
  " clinical": 7234,
  " association": 7235,
  "ivals": 7236,
  " prost": 7237,
  " reputation": 7238,
  " Hud": 7239,
  " sharing": 7240,
  " blame": 7241,
  " ranked": 7242,
  " projected": 7243,
  " Sur": 7244,
  "avy": 7245,
  " Ten": 7246,
  " somewhere": 7247,
  "ijing": 7248,
  "obb": 7249,
  " District": 7250,
  "esides": 7251,
  " nearby": 7252,
  "itz": 7253,
  " Peter": 7254,
  " Hindu": 7255,
  " Thank": 7256,
  " Lord": 7257,
  " institution": 7258,
  " grew": 7259,
  " Tay": 7260,
  " Arch": 7261,
  " subsid": 7262,
  " approved": 7263,
  " squad": 7264,
  " amounts": 7265,
  " ocean": 7266,
  " dealing": 7267,
  "reland": 7268,
  " DE": 7269,
  " Educ": 7270,
  "GM": 7271,
  "redit": 7272,
  " salt": 7273,
  " param": 7274,
  " Colt": 7275,
  " trials": 7276,
  " balance": 7277,
  " Champions": 7278,
  "label": 7279,
  ">\n\n": 7280,
  "illance": 7281,
  "ey": 7282,
  " Mah": 7283,
  "aiden": 7284,
  " Women": 7285,
  "instein": 7286,
  "TestObject": 7287,
  "mega": 7288,
  "Ã¶": 7289,
  " Woll": 7290,
  "stonecraft": 7291,
  "elesc": 7292,
  " Marwan": 7293,
  "}(": 7294,
  " arrive": 7295,
  " injured": 7296,
  "portion": 7297,
  " upcoming": 7298,
  " voting": 7299,
  "Before": 7300,
  " hadn": 7301,
  " Rem": 7302,
  " folks": 7303,
  " regularly": 7304,
  " river": 7305,
  "life": 7306,
  " Asian": 7307,
  " Though": 7308,
  " ec": 7309,
  " repeatedly": 7310,
  " Eric": 7311,
  " deeply": 7312,
  " maximum": 7313,
  " sentence": 7314,
  "chief": 7315,
  "orpor": 7316,
  " Agency": 7317,
  " weird": 7318,
  " equivalent": 7319,
  "Those": 7320,
  " guitar": 7321,
  " noticed": 7322,
  " earned": 7323,
  " volunte": 7324,
  " Fore": 7325,
  " tweeted": 7326,
  " equally": 7327,
  " pushing": 7328,
  " sale": 7329,
  " habit": 7330,
  " reportedly": 7331,
  "rie": 7332,
  " haz": 7333,
  " clot": 7334,
  " wear": 7335,
  " reject": 7336,
  " inspired": 7337,
  "oir": 7338,
  "Also": 7339,
  " argues": 7340,
  " TO": 7341,
  " Max": 7342,
  " favour": 7343,
  "rawn": 7344,
  "ipl": 7345,
  " stret": 7346,
  " precise": 7347,
  " Bat": 7348,
  " talks": 7349,
  " taught": 7350,
  " Stew": 7351,
  "ylum": 7352,
  " Men": 7353,
  " historical": 7354,
  " Orig": 7355,
  " Girl": 7356,
  " Work": 7357,
  " Vict": 7358,
  " replacement": 7359,
  " requests": 7360,
  "hus": 7361,
  " graduate": 7362,
  " unusual": 7363,
  " drawing": 7364,
  " tables": 7365,
  " Bad": 7366,
  " Devil": 7367,
  "rant": 7368,
  " passion": 7369,
  " alter": 7370,
  " taxpayers": 7371,
  " Murray": 7372,
  "ethe": 7373,
  " Camer": 7374,
  " improvement": 7375,
  " firing": 7376,
  " NS": 7377,
  " hardware": 7378,
  " devast": 7379,
  " formal": 7380,
  "arms": 7381,
  " psychological": 7382,
  "aired": 7383,
  " abilities": 7384,
  " newslet": 7385,
  " Christmas": 7386,
  "Co": 7387,
  "bec": 7388,
  " channel": 7389,
  " evolution": 7390,
  " pledge": 7391,
  " hockey": 7392,
  " Fund": 7393,
  " ancient": 7394,
  "igen": 7395,
  " Kurd": 7396,
  " Ever": 7397,
  " symptoms": 7398,
  " craft": 7399,
  " Ni": 7400,
  " province": 7401,
  "inj": 7402,
  "olk": 7403,
  "isexual": 7404,
  "through": 7405,
  " Tal": 7406,
  "asm": 7407,
  " printer": 7408,
  "olph": 7409,
  " MK": 7410,
  "olester": 7411,
  " Yeah": 7412,
  " Omega": 7413,
  " helminth": 7414,
  " Astro": 7415,
  " fencing": 7416,
  "mathbf": 7417,
  " Nations": 7418,
  " persons": 7419,
  " awarded": 7420,
  " Michigan": 7421,
  " intention": 7422,
  "Do": 7423,
  " perspective": 7424,
  " rus": 7425,
  " disag": 7426,
  " defence": 7427,
  " enable": 7428,
  " machines": 7429,
  " spaces": 7430,
  "ghan": 7431,
  " soph": 7432,
  "wegian": 7433,
  " distribution": 7434,
  " fiber": 7435,
  "Yes": 7436,
  "inced": 7437,
  " NY": 7438,
  " tap": 7439,
  " merely": 7440,
  "ii": 7441,
  " Force": 7442,
  " demands": 7443,
  "lined": 7444,
  " busy": 7445,
  " operating": 7446,
  " operator": 7447,
  " worldwide": 7448,
  " selection": 7449,
  " Je": 7450,
  "err": 7451,
  " fed": 7452,
  " Treas": 7453,
  " Three": 7454,
  " shortly": 7455,
  " realized": 7456,
  " Hou": 7457,
  " commitment": 7458,
  "lib": 7459,
  " offices": 7460,
  " houses": 7461,
  "uster": 7462,
  " Anti": 7463,
  "â.": 7464,
  "oil": 7465,
  " industrial": 7466,
  " choices": 7467,
  " expansion": 7468,
  "jection": 7469,
  " professors": 7470,
  " suicide": 7471,
  " collective": 7472,
  " breaking": 7473,
  " prominent": 7474,
  " midfield": 7475,
  " native": 7476,
  " recover": 7477,
  " stages": 7478,
  " deaths": 7479,
  " sorry": 7480,
  " discl": 7481,
  " boat": 7482,
  "sters": 7483,
  "ailed": 7484,
  " proof": 7485,
  "asters": 7486,
  " journey": 7487,
  " rig": 7488,
  "olit": 7489,
  " employers": 7490,
  "astern": 7491,
  "ENT": 7492,
  " Hollywood": 7493,
  "unction": 7494,
  " cycle": 7495,
  " mand": 7496,
  " identical": 7497,
  " stuck": 7498,
  " forth": 7499,
  "road": 7500,
  " violent": 7501,
  " classes": 7502,
  " Authority": 7503,
  " Board": 7504,
  " lawyers": 7505,
  "ena": 7506,
  " schedule": 7507,
  " steal": 7508,
  " roll": 7509,
  " pocket": 7510,
  " demonstrated": 7511,
  "Sim": 7512,
  "raham": 7513,
  "hab": 7514,
  " delivery": 7515,
  " Pun": 7516,
  "athered": 7517,
  " universal": 7518,
  "Because": 7519,
  " goods": 7520,
  " Lo": 7521,
  "istent": 7522,
  " torrent": 7523,
  " Nick": 7524,
  " fires": 7525,
  " Jul": 7526,
  " session": 7527,
  "secution": 7528,
  "sub": 7529,
  " prime": 7530,
  " cognitive": 7531,
  " OT": 7532,
  "shore": 7533,
  " desire": 7534,
  " asylum": 7535,
  " migrants": 7536,
  " Flynn": 7537,
  " Concord": 7538,
  " Gall": 7539,
  "odge": 7540,
  " Anth": 7541,
  " processes": 7542,
  " regeneration": 7543,
  " stadium": 7544,
  " PR": 7545,
  " libraries": 7546,
  "cules": 7547,
  " unif": 7548,
  " laboratory": 7549,
  " Amazon": 7550,
  " galaxy": 7551,
  " designer": 7552,
  " les": 7553,
  " objects": 7554,
  "pk": 7555,
  "olesterol": 7556,
  " Modi": 7557,
  "algorithm": 7558,
  " sucrose": 7559,
  "evil": 7560,
  " Wollstonecraft": 7561,
  " plt": 7562,
  " lucky": 7563,
  " incredible": 7564,
  " noting": 7565,
  " congress": 7566,
  " cul": 7567,
  " studio": 7568,
  " dim": 7569,
  " hook": 7570,
  "cohol": 7571,
  " proved": 7572,
  " sid": 7573,
  " publication": 7574,
  " deliber": 7575,
  " plus": 7576,
  " nav": 7577,
  "Inst": 7578,
  "rogen": 7579,
  " regime": 7580,
  " servers": 7581,
  " reporter": 7582,
  "endo": 7583,
  "riends": 7584,
  " Nation": 7585,
  " bip": 7586,
  " Attorney": 7587,
  " branch": 7588,
  " Windows": 7589,
  " illustr": 7590,
  " joining": 7591,
  "raph": 7592,
  " mouth": 7593,
  "yr": 7594,
  "ulty": 7595,
  "Os": 7596,
  " administr": 7597,
  " Hotel": 7598,
  " humans": 7599,
  " locations": 7600,
  " operate": 7601,
  "En": 7602,
  " scholars": 7603,
  " cited": 7604,
  " Uk": 7605,
  " eating": 7606,
  " lad": 7607,
  " sole": 7608,
  "pler": 7609,
  " trading": 7610,
  " emotional": 7611,
  " Bloomberg": 7612,
  " Kn": 7613,
  "ira": 7614,
  " discipl": 7615,
  " Ju": 7616,
  "ihad": 7617,
  " fighters": 7618,
  " vary": 7619,
  " armed": 7620,
  "icing": 7621,
  " dram": 7622,
  "Bl": 7623,
  " quiet": 7624,
  " Art": 7625,
  " syn": 7626,
  " simultane": 7627,
  " dinner": 7628,
  " whenever": 7629,
  " careful": 7630,
  " reduction": 7631,
  " implemented": 7632,
  " infl": 7633,
  " behalf": 7634,
  "formation": 7635,
  " Hawaii": 7636,
  " opponent": 7637,
  " intim": 7638,
  "Police": 7639,
  "Pal": 7640,
  " Brooklyn": 7641,
  " criticized": 7642,
  " suggesting": 7643,
  " liked": 7644,
  " conspir": 7645,
  "!\"": 7646,
  " los": 7647,
  " Rom": 7648,
  "arma": 7649,
  " procedures": 7650,
  "ependent": 7651,
  " Academ": 7652,
  " Intell": 7653,
  " greatly": 7654,
  " indicate": 7655,
  "viously": 7656,
  "ko": 7657,
  "oured": 7658,
  "agh": 7659,
  " Ruby": 7660,
  "plicity": 7661,
  " Roy": 7662,
  " Charl": 7663,
  " tun": 7664,
  " array": 7665,
  "ington": 7666,
  " Turkey": 7667,
  " consumers": 7668,
  "thood": 7669,
  "https": 7670,
  " facts": 7671,
  "ORE": 7672,
  " explains": 7673,
  " Singap": 7674,
  " Singapore": 7675,
  " egg": 7676,
  " cro": 7677,
  " definition": 7678,
  " audio": 7679,
  " IRS": 7680,
  "berry": 7681,
  " meat": 7682,
  " invent": 7683,
  " situations": 7684,
  " genes": 7685,
  "onesia": 7686,
  " magic": 7687,
  " Beach": 7688,
  " Pic": 7689,
  " suffering": 7690,
  " fewer": 7691,
  " au": 7692,
  " implementations": 7693,
  "aintiff": 7694,
  " molecules": 7695,
  "rine": 7696,
  "akistan": 7697,
  " wheel": 7698,
  " Environment": 7699,
  " Yahoo": 7700,
  " buff": 7701,
  " Giants": 7702,
  " Eb": 7703,
  " Einstein": 7704,
  " typedef": 7705,
  " helminths": 7706,
  "lti": 7707,
  "osto": 7708,
  "signal": 7709,
  " Supp": 7710,
  "ighter": 7711,
  " earthqu": 7712,
  " campaigns": 7713,
  " entering": 7714,
  "idency": 7715,
  "Ã­a": 7716,
  "ounced": 7717,
  " handed": 7718,
  " pushed": 7719,
  " upper": 7720,
  " lights": 7721,
  " Sony": 7722,
  " exhib": 7723,
  " convinced": 7724,
  " browser": 7725,
  "Once": 7726,
  "Update": 7727,
  "Oh": 7728,
  " Cross": 7729,
  " signing": 7730,
  " Services": 7731,
  " allegations": 7732,
  " Aff": 7733,
  " testim": 7734,
  " phr": 7735,
  " Mosc": 7736,
  " infected": 7737,
  " pir": 7738,
  " athlet": 7739,
  " roster": 7740,
  "About": 7741,
  " rarely": 7742,
  "Spe": 7743,
  "Under": 7744,
  " attacked": 7745,
  " struck": 7746,
  "ran": 7747,
  " portable": 7748,
  " Home": 7749,
  "poses": 7750,
  "ificial": 7751,
  " fields": 7752,
  " ourselves": 7753,
  "aning": 7754,
  " Andre": 7755,
  " leaves": 7756,
  " recording": 7757,
  " consistently": 7758,
  "anchester": 7759,
  " Maybe": 7760,
  " comics": 7761,
  " historic": 7762,
  " Met": 7763,
  "ta": 7764,
  " Oliver": 7765,
  " capture": 7766,
  "De": 7767,
  " enemies": 7768,
  "aus": 7769,
  " crash": 7770,
  "irds": 7771,
  "Phone": 7772,
  " substantial": 7773,
  "II": 7774,
  " Penn": 7775,
  " variation": 7776,
  " county": 7777,
  " risks": 7778,
  "ixed": 7779,
  " decline": 7780,
  "Ne": 7781,
  "there": 7782,
  "John": 7783,
  " lunch": 7784,
  " IN": 7785,
  "andy": 7786,
  " hang": 7787,
  " baseball": 7788,
  " council": 7789,
  "lif": 7790,
  " theat": 7791,
  "pes": 7792,
  " circle": 7793,
  "gia": 7794,
  " scientist": 7795,
  "etheless": 7796,
  " protests": 7797,
  " philosophy": 7798,
  "leveland": 7799,
  "eno": 7800,
  " submit": 7801,
  "een": 7802,
  " sup": 7803,
  "otten": 7804,
  " guide": 7805,
  " butt": 7806,
  " Matthe": 7807,
  " Dom": 7808,
  " Nic": 7809,
  "essed": 7810,
  "Google": 7811,
  "rost": 7812,
  "oria": 7813,
  " winter": 7814,
  "Click": 7815,
  " Ukrain": 7816,
  " offense": 7817,
  "ental": 7818,
  "sl": 7819,
  "Like": 7820,
  "nect": 7821,
  "endment": 7822,
  "uns": 7823,
  "hire": 7824,
  "array": 7825,
  " burn": 7826,
  " foss": 7827,
  " farm": 7828,
  " surveillance": 7829,
  " Put": 7830,
  "reate": 7831,
  " Rs": 7832,
  " _": 7833,
  " Harding": 7834,
  " cholesterol": 7835,
  "hash": 7836,
  " iterator": 7837,
  " Energi": 7838,
  " Clinical": 7839,
  "ostoev": 7840,
  "$$": 7841,
  " marked": 7842,
  "otal": 7843,
  "Add": 7844,
  " outcome": 7845,
  "angers": 7846,
  " carefully": 7847,
  " disappointed": 7848,
  " Joseph": 7849,
  " lawmakers": 7850,
  " solo": 7851,
  " ST": 7852,
  " honor": 7853,
  " consumption": 7854,
  " Administ": 7855,
  "fare": 7856,
  " Norwegian": 7857,
  " duty": 7858,
  " shield": 7859,
  "vy": 7860,
  " Stand": 7861,
  " tweets": 7862,
  "ules": 7863,
  " reward": 7864,
  " Bas": 7865,
  "ador": 7866,
  " meetings": 7867,
  " inquiry": 7868,
  " RE": 7869,
  " virus": 7870,
  " infections": 7871,
  " vulnerable": 7872,
  " temporary": 7873,
  " fifth": 7874,
  "ette": 7875,
  "otic": 7876,
  " sending": 7877,
  " Coal": 7878,
  "quarters": 7879,
  " coordin": 7880,
  " footage": 7881,
  "ba": 7882,
  " destruction": 7883,
  "fall": 7884,
  " continuous": 7885,
  " bond": 7886,
  " consequences": 7887,
  " measured": 7888,
  " hypothesis": 7889,
  " Fort": 7890,
  "irm": 7891,
  "omatic": 7892,
  " territory": 7893,
  " Make": 7894,
  "isters": 7895,
  " AT": 7896,
  "woman": 7897,
  " Dark": 7898,
  " searching": 7899,
  " landing": 7900,
  " narr": 7901,
  " volcan": 7902,
  " Stewart": 7903,
  "CC": 7904,
  " discover": 7905,
  "ignment": 7906,
  " hiring": 7907,
  " compre": 7908,
  "Stud": 7909,
  "Rec": 7910,
  "asi": 7911,
  " teaching": 7912,
  " Effect": 7913,
  " Hist": 7914,
  " improving": 7915,
  " CA": 7916,
  " profile": 7917,
  " Asia": 7918,
  "Next": 7919,
  "Mean": 7920,
  "Meanwhile": 7921,
  " campus": 7922,
  " spark": 7923,
  " fits": 7924,
  " assembly": 7925,
  " inspir": 7926,
  " contributions": 7927,
  " skill": 7928,
  " AOL": 7929,
  " closure": 7930,
  "ruce": 7931,
  " odds": 7932,
  " Beijing": 7933,
  " constit": 7934,
  " agents": 7935,
  " organized": 7936,
  "engers": 7937,
  " installed": 7938,
  " hopefully": 7939,
  " gathered": 7940,
  " Gov": 7941,
  " chap": 7942,
  " submitted": 7943,
  " sight": 7944,
  " beautiful": 7945,
  " recruit": 7946,
  " landscape": 7947,
  " franchise": 7948,
  " restrictions": 7949,
  "core": 7950,
  " gro": 7951,
  "aron": 7952,
  " solve": 7953,
  " colon": 7954,
  "inf": 7955,
  " median": 7956,
  "ainable": 7957,
  " copies": 7958,
  " understood": 7959,
  " troub": 7960,
  " Moon": 7961,
  " Indeed": 7962,
  " coaches": 7963,
  " tent": 7964,
  " Concordia": 7965,
  "strong": 7966,
  " dispos": 7967,
  "pha": 7968,
  " Prote": 7969,
  "peror": 7970,
  "icate": 7971,
  " whites": 7972,
  " moral": 7973,
  " lists": 7974,
  " interpretation": 7975,
  " linear": 7976,
  " trait": 7977,
  " presentation": 7978,
  " Greek": 7979,
  " receiver": 7980,
  " indu": 7981,
  " extension": 7982,
  " Sky": 7983,
  "free": 7984,
  " cymb": 7985,
  "cience": 7986,
  " barrel": 7987,
  " intellectual": 7988,
  " universities": 7989,
  " synd": 7990,
  "udes": 7991,
  "itchens": 7992,
  " bacter": 7993,
  "ogy": 7994,
  " Robertson": 7995,
  "plexity": 7996,
  " colors": 7997,
  "ioxide": 7998,
  "aredevil": 7999,
  "elescope": 8000,
  " evac": 8001,
  " Share": 8002,
  " surgery": 8003,
  " lock": 8004,
  " fundra": 8005,
  "ollar": 8006,
  " closing": 8007,
  "Yet": 8008,
  " impr": 8009,
  " motor": 8010,
  " instr": 8011,
  " casual": 8012,
  " suit": 8013,
  "UN": 8014,
  " AN": 8015,
  "OU": 8016,
  " heading": 8017,
  "igrant": 8018,
  " proceeds": 8019,
  "profit": 8020,
  "ibilities": 8021,
  " MS": 8022,
  " Arctic": 8023,
  " tournament": 8024,
  " regulations": 8025,
  "utions": 8026,
  " symb": 8027,
  " Const": 8028,
  " investigate": 8029,
  " constitution": 8030,
  " Moscow": 8031,
  "Gl": 8032,
  " Norm": 8033,
  "pet": 8034,
  " Treasury": 8035,
  " Four": 8036,
  " reverse": 8037,
  "atell": 8038,
  "opp": 8039,
  "new": 8040,
  " respectively": 8041,
  "awa": 8042,
  " rapidly": 8043,
  " rhet": 8044,
  " plane": 8045,
  " thread": 8046,
  " purposes": 8047,
  " Justin": 8048,
  " index": 8049,
  " currency": 8050,
  " bask": 8051,
  " permanent": 8052,
  "velopment": 8053,
  "backs": 8054,
  " Bob": 8055,
  " Manchester": 8056,
  " contacted": 8057,
  " stere": 8058,
  " civilians": 8059,
  " Mean": 8060,
  " Hal": 8061,
  " thousand": 8062,
  " Dick": 8063,
  " guest": 8064,
  " pure": 8065,
  " Ron": 8066,
  " Dube": 8067,
  " counties": 8068,
  " samples": 8069,
  " bias": 8070,
  "agers": 8071,
  " techniques": 8072,
  " tradition": 8073,
  "owa": 8074,
  "iscal": 8075,
  "Any": 8076,
  " talented": 8077,
  " blow": 8078,
  "abet": 8079,
  " discour": 8080,
  " crucial": 8081,
  " outr": 8082,
  "agan": 8083,
  " encounter": 8084,
  " â": 8085,
  " routine": 8086,
  " desperate": 8087,
  "lete": 8088,
  " crus": 8089,
  " loyal": 8090,
  " Foot": 8091,
  "ippi": 8092,
  "you": 8093,
  " scenario": 8094,
  "front": 8095,
  " Elect": 8096,
  " Dri": 8097,
  "amily": 8098,
  " Rod": 8099,
  " Latin": 8100,
  " Cleveland": 8101,
  " km": 8102,
  " probe": 8103,
  "utt": 8104,
  " mountain": 8105,
  "iden": 8106,
  " fundamental": 8107,
  "va": 8108,
  " alt": 8109,
  " secondary": 8110,
  "ctuary": 8111,
  "bered": 8112,
  " trem": 8113,
  "ilton": 8114,
  " somebody": 8115,
  "hemat": 8116,
  " ruled": 8117,
  " Hunt": 8118,
  "osexual": 8119,
  " Vol": 8120,
  " parasitic": 8121,
  " taste": 8122,
  "EL": 8123,
  " Rome": 8124,
  " dogs": 8125,
  " depending": 8126,
  "test": 8127,
  " Little": 8128,
  " Greg": 8129,
  " shipping": 8130,
  " FOR": 8131,
  " remarkable": 8132,
  " retirement": 8133,
  " reveals": 8134,
  " ownership": 8135,
  " normally": 8136,
  "otype": 8137,
  " inner": 8138,
  " Turkish": 8139,
  " cutting": 8140,
  "nell": 8141,
  " https": 8142,
  "asion": 8143,
  " professionals": 8144,
  " controller": 8145,
  " usage": 8146,
  "arris": 8147,
  " costumes": 8148,
  " improvements": 8149,
  " aspect": 8150,
  " Pent": 8151,
  "gets": 8152,
  " feelings": 8153,
  " bisexual": 8154,
  "lesque": 8155,
  " About": 8156,
  " Tet": 8157,
  "enders": 8158,
  " brown": 8159,
  " por": 8160,
  "olphins": 8161,
  "area": 8162,
  " dying": 8163,
  " allocators": 8164,
  " liver": 8165,
  "ersen": 8166,
  "ostoevsky": 8167,
  " autoAbs": 8168,
  " Medical": 8169,
  " conversations": 8170,
  " requested": 8171,
  "eping": 8172,
  " rubble": 8173,
  " stayed": 8174,
  " earthquake": 8175,
  " struggling": 8176,
  " encourage": 8177,
  " presum": 8178,
  " loud": 8179,
  " Cook": 8180,
  " competitive": 8181,
  " satur": 8182,
  " princip": 8183,
  "ographer": 8184,
  "uce": 8185,
  " fantastic": 8186,
  "ternal": 8187,
  "iversary": 8188,
  " computers": 8189,
  "ications": 8190,
  " overwhelming": 8191,
  "aska": 8192,
  " Fed": 8193,
  " reader": 8194,
  " explore": 8195,
  " obtained": 8196,
  " discussing": 8197,
  "Che": 8198,
  "IL": 8199,
  " Its": 8200,
  " volunt": 8201,
  " Fair": 8202,
  "Aut": 8203,
  " roles": 8204,
  "ulating": 8205,
  " destroyed": 8206,
  " Square": 8207,
  " compe": 8208,
  " PV": 8209,
  " stimulus": 8210,
  " Capt": 8211,
  "Israel": 8212,
  " possession": 8213,
  " vac": 8214,
  " thrown": 8215,
  " captured": 8216,
  " rom": 8217,
  " breaks": 8218,
  "Green": 8219,
  " targeting": 8220,
  "ropri": 8221,
  "versal": 8222,
  "inking": 8223,
  " studying": 8224,
  " involving": 8225,
  " dependent": 8226,
  "effects": 8227,
  "burg": 8228,
  " superior": 8229,
  " resulted": 8230,
  " handful": 8231,
  " Person": 8232,
  " Program": 8233,
  " graphics": 8234,
  " setup": 8235,
  " Stanford": 8236,
  " enorm": 8237,
  " suspects": 8238,
  "odd": 8239,
  " Atlantic": 8240,
  "via": 8241,
  " attending": 8242,
  " hardly": 8243,
  " seemingly": 8244,
  " spots": 8245,
  " Still": 8246,
  " Mississ": 8247,
  " Mississippi": 8248,
  " SEC": 8249,
  " titles": 8250,
  " peak": 8251,
  "ateral": 8252,
  " funded": 8253,
  " efficiency": 8254,
  " passengers": 8255,
  " Intelligence": 8256,
  "ht": 8257,
  "ele": 8258,
  " diagn": 8259,
  " shock": 8260,
  " neighbour": 8261,
  " entertainment": 8262,
  " rating": 8263,
  "angel": 8264,
  " genu": 8265,
  " toler": 8266,
  " Dar": 8267,
  " Northern": 8268,
  " rent": 8269,
  " chest": 8270,
  " citizen": 8271,
  " arguing": 8272,
  " shel": 8273,
  " posting": 8274,
  "vin": 8275,
  " dynam": 8276,
  " remote": 8277,
  " wars": 8278,
  " letting": 8279,
  "ogen": 8280,
  " liqu": 8281,
  " Syd": 8282,
  " Sydney": 8283,
  " lifetime": 8284,
  " humanity": 8285,
  " Golden": 8286,
  " Austria": 8287,
  " departments": 8288,
  " Lew": 8289,
  "bett": 8290,
  " whereas": 8291,
  " behavi": 8292,
  "European": 8293,
  "arat": 8294,
  " welcome": 8295,
  " Inf": 8296,
  " ruling": 8297,
  " Cru": 8298,
  " SP": 8299,
  "osis": 8300,
  "ersion": 8301,
  "ertification": 8302,
  " Sciences": 8303,
  "akespe": 8304,
  "occer": 8305,
  " gall": 8306,
  "bar": 8307,
  "ige": 8308,
  " Mik": 8309,
  "Â°": 8310,
  " brew": 8311,
  "arget": 8312,
  " Croft": 8313,
  " Kor": 8314,
  " Sn": 8315,
  " bitcoin": 8316,
  " bass": 8317,
  " simplicity": 8318,
  " Sued": 8319,
  " Suedfeld": 8320,
  " dioxide": 8321,
  "rath": 8322,
  "usha": 8323,
  " Monk": 8324,
  "--------": 8325,
  " NBN": 8326,
  " Daredevil": 8327,
  "^{": 8328,
  " &=": 8329,
  " &=&": 8330,
  " CSP": 8331,
  "Maiden": 8332,
  "Maidenhead": 8333,
  " troops": 8334,
  " monit": 8335,
  " nobody": 8336,
  " drew": 8337,
  " Ill": 8338,
  "rous": 8339,
  " participate": 8340,
  " Does": 8341,
  " Obam": 8342,
  " Sean": 8343,
  " supposedly": 8344,
  "unn": 8345,
  "idity": 8346,
  " minds": 8347,
  " questioned": 8348,
  " privile": 8349,
  " fool": 8350,
  " alcohol": 8351,
  " Unfortunately": 8352,
  "wich": 8353,
  " officially": 8354,
  " convicted": 8355,
  " Executive": 8356,
  " anniversary": 8357,
  " frame": 8358,
  " hidden": 8359,
  " partially": 8360,
  " Prince": 8361,
  " format": 8362,
  " partnership": 8363,
  " Policy": 8364,
  " revel": 8365,
  " engaged": 8366,
  " Jason": 8367,
  " weakness": 8368,
  "idesp": 8369,
  "idespread": 8370,
  " Software": 8371,
  "borne": 8372,
  " uncom": 8373,
  "hour": 8374,
  " acting": 8375,
  "inity": 8376,
  " Bing": 8377,
  " websites": 8378,
  " wing": 8379,
  "Watch": 8380,
  " mixture": 8381,
  "heast": 8382,
  "udi": 8383,
  "'\n\n": 8384,
  " clothing": 8385,
  "ught": 8386,
  " ash": 8387,
  " euro": 8388,
  " versus": 8389,
  " artificial": 8390,
  "illiant": 8391,
  " Bost": 8392,
  " fort": 8393,
  " grant": 8394,
  " maintained": 8395,
  " advocate": 8396,
  "inson": 8397,
  " load": 8398,
  " visitors": 8399,
  "igation": 8400,
  " usual": 8401,
  " parking": 8402,
  "she": 8403,
  "ordan": 8404,
  " patterns": 8405,
  " iPhone": 8406,
  " stepped": 8407,
  " yellow": 8408,
  "syl": 8409,
  "sylvan": 8410,
  "ownload": 8411,
  "ifies": 8412,
  " investigating": 8413,
  " grounds": 8414,
  " sorts": 8415,
  " scope": 8416,
  " EP": 8417,
  " finds": 8418,
  "rowing": 8419,
  " attempting": 8420,
  "itter": 8421,
  " fighter": 8422,
  " Terry": 8423,
  " facility": 8424,
  " letters": 8425,
  " pip": 8426,
  " rum": 8427,
  " appointed": 8428,
  " subjects": 8429,
  " citing": 8430,
  " drag": 8431,
  "ugar": 8432,
  " End": 8433,
  " lake": 8434,
  "ailing": 8435,
  "Similar": 8436,
  "Rep": 8437,
  " Care": 8438,
  " Pay": 8439,
  " successfully": 8440,
  "rendum": 8441,
  " ampl": 8442,
  " fraud": 8443,
  " pil": 8444,
  " fabric": 8445,
  " gang": 8446,
  " tip": 8447,
  "break": 8448,
  " distract": 8449,
  "teen": 8450,
  " Yan": 8451,
  " Tour": 8452,
  "GS": 8453,
  "founder": 8454,
  " priority": 8455,
  " suffer": 8456,
  " Which": 8457,
  " discrimination": 8458,
  "adel": 8459,
  "born": 8460,
  " lineback": 8461,
  "roph": 8462,
  " offshore": 8463,
  "alian": 8464,
  " Albert": 8465,
  " Leban": 8466,
  " genuine": 8467,
  " distur": 8468,
  " spin": 8469,
  "quest": 8470,
  "zed": 8471,
  " feedback": 8472,
  " Gray": 8473,
  "eters": 8474,
  " Dut": 8475,
  " electricity": 8476,
  " permit": 8477,
  " sharp": 8478,
  " dies": 8479,
  " autonom": 8480,
  " Line": 8481,
  " Wear": 8482,
  " Brew": 8483,
  " bills": 8484,
  " mindset": 8485,
  " Shakespe": 8486,
  " Lara": 8487,
  "urora": 8488,
  "oughty": 8489,
  " boot": 8490,
  " Pass": 8491,
  " mel": 8492,
  " frag": 8493,
  " Ram": 8494,
  "LC": 8495,
  " channels": 8496,
  " Pakistan": 8497,
  " cabal": 8498,
  " Ebola": 8499,
  " Jessie": 8500,
  " Ig": 8501,
  "iceps": 8502,
  "ocator": 8503,
  " Goss": 8504,
  " katli": 8505,
  "Î±": 8506,
  "MSH": 8507,
  " ADD": 8508,
  "iti": 8509,
  " crack": 8510,
  " rescue": 8511,
  " paralle": 8512,
  " pending": 8513,
  " presidency": 8514,
  " industries": 8515,
  " angry": 8516,
  " â": 8517,
  " opinions": 8518,
  " fault": 8519,
  " lying": 8520,
  " sufficient": 8521,
  " openly": 8522,
  " printed": 8523,
  "Yeah": 8524,
  "usted": 8525,
  "avor": 8526,
  " Contin": 8527,
  " Without": 8528,
  " shop": 8529,
  " hacking": 8530,
  " Afghan": 8531,
  "NA": 8532,
  " Swed": 8533,
  " managing": 8534,
  " tank": 8535,
  "agram": 8536,
  " publisher": 8537,
  "DS": 8538,
  "eration": 8539,
  " overt": 8540,
  " scrut": 8541,
  " leaked": 8542,
  " prohib": 8543,
  "Will": 8544,
  "IF": 8545,
  "amers": 8546,
  "inux": 8547,
  " categories": 8548,
  " Community": 8549,
  "inding": 8550,
  "ethod": 8551,
  " util": 8552,
  " Data": 8553,
  " interviewed": 8554,
  " Ian": 8555,
  " interven": 8556,
  " exists": 8557,
  " utility": 8558,
  " dollar": 8559,
  " basket": 8560,
  " profit": 8561,
  " underlying": 8562,
  " equality": 8563,
  " Key": 8564,
  " diverse": 8565,
  " Mrs": 8566,
  " degrees": 8567,
  " NBC": 8568,
  "iger": 8569,
  " gif": 8570,
  " jihad": 8571,
  "hero": 8572,
  "erver": 8573,
  " Queen": 8574,
  " Meanwhile": 8575,
  " subt": 8576,
  " hanging": 8577,
  " appearing": 8578,
  " Death": 8579,
  "onder": 8580,
  " simultaneously": 8581,
  " gig": 8582,
  " distinct": 8583,
  " wages": 8584,
  " Pennsylvan": 8585,
  " statistical": 8586,
  " None": 8587,
  " framework": 8588,
  " essential": 8589,
  "ventions": 8590,
  " excess": 8591,
  "ublished": 8592,
  "ussion": 8593,
  " organisation": 8594,
  " contracts": 8595,
  "outing": 8596,
  "minute": 8597,
  " exclusive": 8598,
  " enthus": 8599,
  " princi": 8600,
  " sizes": 8601,
  " hall": 8602,
  "maker": 8603,
  " bridge": 8604,
  "tra": 8605,
  " divor": 8606,
  " orders": 8607,
  " okay": 8608,
  " recognize": 8609,
  "lah": 8610,
  " proven": 8611,
  " Medic": 8612,
  " waste": 8613,
  " myth": 8614,
  " Among": 8615,
  " Marg": 8616,
  " torn": 8617,
  " suspended": 8618,
  " Rog": 8619,
  " input": 8620,
  "hal": 8621,
  "sted": 8622,
  " aimed": 8623,
  " depth": 8624,
  "abe": 8625,
  "die": 8626,
  " Live": 8627,
  "zens": 8628,
  " Vis": 8629,
  " Taylor": 8630,
  "pin": 8631,
  "arenthood": 8632,
  " narrative": 8633,
  "ST": 8634,
  "!!!!": 8635,
  " abstr": 8636,
  "rical": 8637,
  "big": 8638,
  " ing": 8639,
  " teammates": 8640,
  "ISS": 8641,
  " gases": 8642,
  " Ireland": 8643,
  " chain": 8644,
  " strict": 8645,
  " ticket": 8646,
  " Nether": 8647,
  " Egyptian": 8648,
  " manif": 8649,
  "stat": 8650,
  "oba": 8651,
  " silent": 8652,
  "erves": 8653,
  "first": 8654,
  " metal": 8655,
  " Thanks": 8656,
  " quant": 8657,
  " Integr": 8658,
  " Gene": 8659,
  "à¸": 8660,
  "best": 8661,
  " QB": 8662,
  " Az": 8663,
  " Best": 8664,
  " Riz": 8665,
  " purchased": 8666,
  " struggle": 8667,
  " Hay": 8668,
  " Shakespeare": 8669,
  " rifles": 8670,
  " (\"": 8671,
  "rm": 8672,
  "pat": 8673,
  " promising": 8674,
  "iban": 8675,
  " technique": 8676,
  " spear": 8677,
  " het": 8678,
  "ousands": 8679,
  " Lot": 8680,
  " measurement": 8681,
  " Tetlock": 8682,
  " approximation": 8683,
  " OR": 8684,
  "._": 8685,
  " proteins": 8686,
  " Fors": 8687,
  "iwal": 8688,
  " Katusha": 8689,
  " Danmark": 8690,
  " Yang": 8691,
  "alach": 8692,
  " Dostoevsky": 8693,
  " Konoe": 8694,
  " nurses": 8695,
  " deem": 8696,
  "afe": 8697,
  " suddenly": 8698,
  "ricane": 8699,
  "ocratic": 8700,
  " Missou": 8701,
  " embr": 8702,
  " nomine": 8703,
  " expectations": 8704,
  " opposition": 8705,
  "erg": 8706,
  " childhood": 8707,
  " Rah": 8708,
  "inating": 8709,
  " acknowledge": 8710,
  " fears": 8711,
  "they": 8712,
  "aved": 8713,
  " walked": 8714,
  " Despite": 8715,
  "MA": 8716,
  " chips": 8717,
  " promoting": 8718,
  " Judge": 8719,
  " references": 8720,
  " Ki": 8721,
  "ources": 8722,
  "oviet": 8723,
  " gained": 8724,
  " Custom": 8725,
  " battery": 8726,
  " covers": 8727,
  " dreams": 8728,
  "style": 8729,
  " .\n\n": 8730,
  " shall": 8731,
  " replied": 8732,
  " Patrick": 8733,
  " answers": 8734,
  " addressed": 8735,
  "after": 8736,
  "umer": 8737,
  " employed": 8738,
  " widespread": 8739,
  "SCR": 8740,
  "lining": 8741,
  " licens": 8742,
  " pover": 8743,
  " poverty": 8744,
  " legit": 8745,
  " compete": 8746,
  " deeper": 8747,
  " gains": 8748,
  " serves": 8749,
  " Radio": 8750,
  " Houston": 8751,
  " edition": 8752,
  "Int": 8753,
  " headquarters": 8754,
  "cat": 8755,
  " condem": 8756,
  " western": 8757,
  "Look": 8758,
  " obst": 8759,
  " progressive": 8760,
  " gonna": 8761,
  " diam": 8762,
  "cies": 8763,
  " brilliant": 8764,
  "prise": 8765,
  " fallen": 8766,
  "chell": 8767,
  "lan": 8768,
  " formation": 8769,
  "ME": 8770,
  " literally": 8771,
  " Perhaps": 8772,
  " Ale": 8773,
  " concrete": 8774,
  " Page": 8775,
  " pursu": 8776,
  " marks": 8777,
  " Call": 8778,
  " Lut": 8779,
  " Pennsylvania": 8780,
  " neighb": 8781,
  " dismissed": 8782,
  " imposed": 8783,
  "tical": 8784,
  " distributed": 8785,
  " Hans": 8786,
  " sensit": 8787,
  " Economic": 8788,
  " Market": 8789,
  " Acc": 8790,
  " chose": 8791,
  " releases": 8792,
  " principles": 8793,
  " Origin": 8794,
  " notion": 8795,
  "raid": 8796,
  " subur": 8797,
  " begun": 8798,
  "eman": 8799,
  " hint": 8800,
  " prosecutors": 8801,
  " stir": 8802,
  " Bruce": 8803,
  " Oklah": 8804,
  "olve": 8805,
  "aret": 8806,
  " Li": 8807,
  " allocation": 8808,
  " referendum": 8809,
  " Cameron": 8810,
  " violated": 8811,
  "was": 8812,
  " independence": 8813,
  " donations": 8814,
  " tox": 8815,
  "Ass": 8816,
  "Who": 8817,
  "oj": 8818,
  "CSF": 8819,
  "itals": 8820,
  " sessions": 8821,
  "ao": 8822,
  "olas": 8823,
  "ua": 8824,
  " ceiling": 8825,
  " laid": 8826,
  " Fisher": 8827,
  " rolled": 8828,
  " trave": 8829,
  " Dam": 8830,
  " engines": 8831,
  " continuing": 8832,
  " flying": 8833,
  " phase": 8834,
  "itled": 8835,
  "bu": 8836,
  " Philadel": 8837,
  " Philadelph": 8838,
  " Philadelphia": 8839,
  "ounted": 8840,
  " Harvey": 8841,
  " asks": 8842,
  " Som": 8843,
  " IC": 8844,
  " segment": 8845,
  "rett": 8846,
  " Festival": 8847,
  "asts": 8848,
  " procedure": 8849,
  " apt": 8850,
  "?\"\n\n": 8851,
  " Invest": 8852,
  " hide": 8853,
  "aga": 8854,
  " blacks": 8855,
  " Roth": 8856,
  " subsequent": 8857,
  " stating": 8858,
  " naturally": 8859,
  " Indonesia": 8860,
  " Wels": 8861,
  " Welsh": 8862,
  "Ã±": 8863,
  "empl": 8864,
  " posts": 8865,
  "ults": 8866,
  " Anthony": 8867,
  " outs": 8868,
  "ni": 8869,
  " pollution": 8870,
  " forest": 8871,
  " Bron": 8872,
  "hent": 8873,
  " finance": 8874,
  "TML": 8875,
  "mir": 8876,
  "arthy": 8877,
  "ubble": 8878,
  "unes": 8879,
  "ð": 8880,
  "enter": 8881,
  " compensation": 8882,
  " HIV": 8883,
  " Europ": 8884,
  "lis": 8885,
  " NL": 8886,
  " Vien": 8887,
  "Californ": 8888,
  " pedest": 8889,
  " chlor": 8890,
  "bitset": 8891,
  "=(": 8892,
  " Forsik": 8893,
  " Forsikring": 8894,
  "Riwal": 8895,
  "Ita": 8896,
  "olecular": 8897,
  " Rover": 8898,
  " supplies": 8899,
  " ridic": 8900,
  " facilities": 8901,
  " traum": 8902,
  "ierre": 8903,
  " Orle": 8904,
  " Orleans": 8905,
  " Missouri": 8906,
  "inois": 8907,
  "Her": 8908,
  "ustration": 8909,
  " FBI": 8910,
  " lesson": 8911,
  " tenure": 8912,
  " defeat": 8913,
  "acare": 8914,
  " acknowledged": 8915,
  " anticip": 8916,
  " performing": 8917,
  " IT": 8918,
  " Ford": 8919,
  " contained": 8920,
  " approached": 8921,
  " summary": 8922,
  "ardo": 8923,
  " portion": 8924,
  "Ear": 8925,
  "about": 8926,
  " Administration": 8927,
  " (â": 8928,
  "aped": 8929,
  " swing": 8930,
  "Story": 8931,
  "PM": 8932,
  " participation": 8933,
  " arbit": 8934,
  " Ger": 8935,
  " courts": 8936,
  "alks": 8937,
  " restore": 8938,
  " pounds": 8939,
  " tackles": 8940,
  " pace": 8941,
  " Use": 8942,
  " Table": 8943,
  "pal": 8944,
  " endorse": 8945,
  " Liberal": 8946,
  " wealthy": 8947,
  " Expl": 8948,
  "post": 8949,
  "esty": 8950,
  " terrorists": 8951,
  ".â\n\n": 8952,
  " conscious": 8953,
  " bright": 8954,
  " rose": 8955,
  " dub": 8956,
  " mac": 8957,
  "econom": 8958,
  " Enter": 8959,
  " Mayor": 8960,
  "del": 8961,
  " Charles": 8962,
  " tends": 8963,
  " hitting": 8964,
  " numerical": 8965,
  " jur": 8966,
  " importantly": 8967,
  " drawn": 8968,
  " march": 8969,
  " Cat": 8970,
  " Grays": 8971,
  "theless": 8972,
  " distingu": 8973,
  "usions": 8974,
  " comparing": 8975,
  " correlated": 8976,
  " consensus": 8977,
  " Sometimes": 8978,
  "ometric": 8979,
  " Note": 8980,
  " Ult": 8981,
  " rural": 8982,
  " Industrial": 8983,
  "cap": 8984,
  "ogan": 8985,
  " gym": 8986,
  " Bol": 8987,
  " musc": 8988,
  " Palestinian": 8989,
  "arity": 8990,
  " intimid": 8991,
  " enabled": 8992,
  " enormous": 8993,
  " faculty": 8994,
  " Defense": 8995,
  " afraid": 8996,
  " nerd": 8997,
  "ship": 8998,
  " scheme": 8999,
  " Edge": 9000,
  "cure": 9001,
  " cooper": 9002,
  " Obs": 9003,
  " burden": 9004,
  " conspiracy": 9005,
  " purs": 9006,
  " Spring": 9007,
  " gest": 9008,
  " protesters": 9009,
  " scandal": 9010,
  "abama": 9011,
  " peer": 9012,
  " Georgia": 9013,
  "igers": 9014,
  " Maryland": 9015,
  " Baker": 9016,
  " hosted": 9017,
  "ompan": 9018,
  " Yet": 9019,
  " tied": 9020,
  " Systems": 9021,
  " regional": 9022,
  "rid": 9023,
  "nedy": 9024,
  "fers": 9025,
  " delays": 9026,
  " Tony": 9027,
  " beach": 9028,
  " spiritual": 9029,
  " tremend": 9030,
  "ancou": 9031,
  "ancouver": 9032,
  " Hen": 9033,
  " Bry": 9034,
  "Act": 9035,
  " neither": 9036,
  " trigger": 9037,
  " Guardian": 9038,
  " Parenthood": 9039,
  " preparing": 9040,
  " containing": 9041,
  " milk": 9042,
  " Real": 9043,
  " elig": 9044,
  " Chair": 9045,
  "iate": 9046,
  " eru": 9047,
  " mask": 9048,
  " sensitive": 9049,
  " Food": 9050,
  " Jun": 9051,
  " wonderful": 9052,
  "inem": 9053,
  " cance": 9054,
  " Ol": 9055,
  " allocated": 9056,
  " Level": 9057,
  " www": 9058,
  "panic": 9059,
  " sheriff": 9060,
  " indicated": 9061,
  " mainstream": 9062,
  "olving": 9063,
  "imore": 9064,
  " Furthermore": 9065,
  " Head": 9066,
  "\".[": 9067,
  " Block": 9068,
  " Hop": 9069,
  "WA": 9070,
  "oven": 9071,
  " producing": 9072,
  "tenance": 9073,
  " infantry": 9074,
  "ested": 9075,
  " incorpor": 9076,
  " psychiat": 9077,
  "mission": 9078,
  "ching": 9079,
  " Aven": 9080,
  " limits": 9081,
  " screens": 9082,
  " establishment": 9083,
  "HA": 9084,
  " soccer": 9085,
  "Someone": 9086,
  " fiscal": 9087,
  " plaintiff": 9088,
  " technological": 9089,
  "MU": 9090,
  "stan": 9091,
  "stanbul": 9092,
  " therm": 9093,
  "Description": 9094,
  " birthday": 9095,
  " males": 9096,
  " Raider": 9097,
  " AI": 9098,
  " chronic": 9099,
  " toy": 9100,
  " Falk": 9101,
  " Steel": 9102,
  " Hitchens": 9103,
  " bacteria": 9104,
  " dietary": 9105,
  " tob": 9106,
  " tobacco": 9107,
  " Spain": 9108,
  " Helen": 9109,
  " Integrative": 9110,
  "rt": 9111,
  " tut": 9112,
  "Asia": 9113,
  " continuation": 9114,
  " uint": 9115,
  " SRF": 9116,
  " serum": 9117,
  "ascade": 9118,
  " Molecular": 9119,
  "ciante": 9120,
  "]:": 9121,
  " Warden": 9122,
  "aranasi": 9123,
  "attered": 9124,
  " magnitude": 9125,
  " parallel": 9126,
  " scared": 9127,
  " Illinois": 9128,
  " proportion": 9129,
  "ributes": 9130,
  "from": 9131,
  " ally": 9132,
  " Obamacare": 9133,
  " strategies": 9134,
  " flags": 9135,
  " Lim": 9136,
  " Ax": 9137,
  " stup": 9138,
  " legs": 9139,
  "Com": 9140,
  " tries": 9141,
  " requiring": 9142,
  " OK": 9143,
  "rell": 9144,
  "made": 9145,
  " ;": 9146,
  " photograph": 9147,
  " Toy": 9148,
  " assigned": 9149,
  " builds": 9150,
  " paint": 9151,
  "lly": 9152,
  " gift": 9153,
  "lights": 9154,
  " Division": 9155,
  " complicated": 9156,
  " predicted": 9157,
  "udo": 9158,
  "Â®": 9159,
  "intendo": 9160,
  " Sessions": 9161,
  " investigations": 9162,
  " prospect": 9163,
  "orough": 9164,
  "usal": 9165,
  "who": 9166,
  "Me": 9167,
  " Lear": 9168,
  " achieved": 9169,
  " Area": 9170,
  "aying": 9171,
  " Coalition": 9172,
  " activist": 9173,
  " Cooper": 9174,
  " Gh": 9175,
  " Ott": 9176,
  " journalist": 9177,
  "'.": 9178,
  " smell": 9179,
  " rhetoric": 9180,
  " ethnic": 9181,
  " losses": 9182,
  "omics": 9183,
  " extract": 9184,
  "apse": 9185,
  " Boston": 9186,
  " venture": 9187,
  "aware": 9188,
  " NE": 9189,
  " camps": 9190,
  " reserved": 9191,
  " Mexican": 9192,
  " deserve": 9193,
  " Universe": 9194,
  "owing": 9195,
  " swim": 9196,
  "yth": 9197,
  " plot": 9198,
  " nem": 9199,
  " reviews": 9200,
  "comes": 9201,
  " prospects": 9202,
  " contribution": 9203,
  " generated": 9204,
  " educational": 9205,
  " voices": 9206,
  "rer": 9207,
  " Murphy": 9208,
  "atural": 9209,
  " advocates": 9210,
  "obs": 9211,
  " stores": 9212,
  " tens": 9213,
  " healthcare": 9214,
  "OTC": 9215,
  " circuit": 9216,
  " Management": 9217,
  " Las": 9218,
  " breath": 9219,
  " manip": 9220,
  "och": 9221,
  " hearings": 9222,
  " owns": 9223,
  " wondering": 9224,
  " rankings": 9225,
  " ranks": 9226,
  " pointing": 9227,
  " ASU": 9228,
  " adapt": 9229,
  " romantic": 9230,
  " guards": 9231,
  " Sher": 9232,
  " bear": 9233,
  " poison": 9234,
  " trillion": 9235,
  " fer": 9236,
  " deployed": 9237,
  "eals": 9238,
  "will": 9239,
  " loose": 9240,
  " speaks": 9241,
  " parliament": 9242,
  " influential": 9243,
  " Access": 9244,
  " programme": 9245,
  " wanting": 9246,
  " priest": 9247,
  "elta": 9248,
  " sanctuary": 9249,
  "gered": 9250,
  " sin": 9251,
  " ignored": 9252,
  " Vancouver": 9253,
  " Parker": 9254,
  " rounds": 9255,
  " dozens": 9256,
  " algorithm": 9257,
  " mathemat": 9258,
  " wet": 9259,
  " Price": 9260,
  " premium": 9261,
  " imprison": 9262,
  " hostile": 9263,
  " facilit": 9264,
  " coron": 9265,
  " corp": 9266,
  " Planned": 9267,
  "roduct": 9268,
  " pin": 9269,
  " moderate": 9270,
  "inos": 9271,
  " Fal": 9272,
  "uties": 9273,
  "zech": 9274,
  " Italian": 9275,
  " Pen": 9276,
  " savings": 9277,
  " cache": 9278,
  " intervention": 9279,
  "ulatory": 9280,
  "raf": 9281,
  " anc": 9282,
  "idem": 9283,
  " poly": 9284,
  " blocked": 9285,
  " Java": 9286,
  " Point": 9287,
  " overcome": 9288,
  " kicked": 9289,
  " List": 9290,
  " prepar": 9291,
  "inters": 9292,
  "Pad": 9293,
  " actively": 9294,
  "atar": 9295,
  " Soci": 9296,
  " echo": 9297,
  " symp": 9298,
  " dates": 9299,
  " overseas": 9300,
  " actors": 9301,
  "rec": 9302,
  " Quebec": 9303,
  " exchanges": 9304,
  " delic": 9305,
  " Education": 9306,
  " fuck": 9307,
  " NHS": 9308,
  "dn": 9309,
  " UP": 9310,
  " finan": 9311,
  " sanctions": 9312,
  "away": 9313,
  " Cry": 9314,
  "anj": 9315,
  " punishment": 9316,
  " Code": 9317,
  " Tomb": 9318,
  " drones": 9319,
  " Cruz": 9320,
  " Target": 9321,
  " Lions": 9322,
  " athe": 9323,
  " Galaxy": 9324,
  " dialect": 9325,
  "icester": 9326,
  " McCain": 9327,
  "itudes": 9328,
  " keyboard": 9329,
  " Norrath": 9330,
  " Gandhi": 9331,
  " syndrome": 9332,
  " Belkin": 9333,
  "Stem": 9334,
  " Chili": 9335,
  " Peppers": 9336,
  " Frus": 9337,
  " Frusciante": 9338,
  " Appalach": 9339,
  "appa": 9340,
  " Freeze": 9341,
  " Chaplin": 9342,
  " psychopathology": 9343,
  " Quan": 9344,
  " clin": 9345,
  " nowhere": 9346,
  " stab": 9347,
  " tonight": 9348,
  "Are": 9349,
  "iana": 9350,
  "aos": 9351,
  " deleg": 9352,
  " calend": 9353,
  "dis": 9354,
  "fast": 9355,
  " Jes": 9356,
  " legacy": 9357,
  " perception": 9358,
  " Against": 9359,
  "leading": 9360,
  " ultimate": 9361,
  " interact": 9362,
  " singer": 9363,
  " hatred": 9364,
  " crimin": 9365,
  " tone": 9366,
  "urrent": 9367,
  " Soviet": 9368,
  " modified": 9369,
  "yo": 9370,
  " sister": 9371,
  " associate": 9372,
  " matches": 9373,
  " Sem": 9374,
  " batt": 9375,
  " Plus": 9376,
  " startup": 9377,
  " acceptable": 9378,
  "inations": 9379,
  "dem": 9380,
  " III": 9381,
  " involvement": 9382,
  " counsel": 9383,
  "minded": 9384,
  " Leader": 9385,
  " Old": 9386,
  " Linux": 9387,
  "shot": 9388,
  " Far": 9389,
  " lun": 9390,
  "Or": 9391,
  " Phot": 9392,
  " accus": 9393,
  " satell": 9394,
  "Second": 9395,
  "open": 9396,
  " hij": 9397,
  " stead": 9398,
  "foot": 9399,
  " verbal": 9400,
  " feeding": 9401,
  "attering": 9402,
  "NBC": 9403,
  "mes": 9404,
  " fought": 9405,
  " foundation": 9406,
  " invited": 9407,
  " CBS": 9408,
  " alert": 9409,
  " urged": 9410,
  "icking": 9411,
  " tracking": 9412,
  " Mun": 9413,
  "ani": 9414,
  " Cav": 9415,
  "VER": 9416,
  " constructed": 9417,
  " Ros": 9418,
  "itol": 9419,
  " Jordan": 9420,
  " tab": 9421,
  " occurs": 9422,
  "power": 9423,
  " Finally": 9424,
  " approaches": 9425,
  " reliable": 9426,
  " Harry": 9427,
  "eria": 9428,
  " borders": 9429,
  " Reich": 9430,
  " representative": 9431,
  " Source": 9432,
  " significance": 9433,
  "atively": 9434,
  " comprehens": 9435,
  " Sab": 9436,
  "umark": 9437,
  " adoption": 9438,
  " sensitivity": 9439,
  " ham": 9440,
  " skept": 9441,
  " Before": 9442,
  " preced": 9443,
  " Such": 9444,
  "keley": 9445,
  " Non": 9446,
  " Ide": 9447,
  " KOTC": 9448,
  " abroad": 9449,
  " cure": 9450,
  "asant": 9451,
  " Professor": 9452,
  " Jr": 9453,
  " jun": 9454,
  "ighting": 9455,
  " inspiration": 9456,
  "lli": 9457,
  " exclus": 9458,
  " billions": 9459,
  " veteran": 9460,
  " elabor": 9461,
  " replacing": 9462,
  " Run": 9463,
  "inds": 9464,
  " Football": 9465,
  " Alabama": 9466,
  " dominant": 9467,
  " Final": 9468,
  " reaching": 9469,
  " Uber": 9470,
  " enjoyed": 9471,
  "dri": 9472,
  " bold": 9473,
  " upgrade": 9474,
  "town": 9475,
  "OK": 9476,
  "neg": 9477,
  " pod": 9478,
  "ahn": 9479,
  " formula": 9480,
  " returning": 9481,
  " Kennedy": 9482,
  "unter": 9483,
  " encouraged": 9484,
  " pharm": 9485,
  "lix": 9486,
  "throp": 9487,
  "door": 9488,
  " oxy": 9489,
  " Nich": 9490,
  " Cam": 9491,
  " Map": 9492,
  " shame": 9493,
  " Buff": 9494,
  " Dak": 9495,
  " Broad": 9496,
  " complaint": 9497,
  " cham": 9498,
  " frustr": 9499,
  " involves": 9500,
  " Domain": 9501,
  " challenging": 9502,
  " Shield": 9503,
  " Conne": 9504,
  " Content": 9505,
  " Christopher": 9506,
  " compat": 9507,
  "race": 9508,
  " impression": 9509,
  " shares": 9510,
  " Major": 9511,
  " turb": 9512,
  " teachers": 9513,
  " protecting": 9514,
  " protocol": 9515,
  "ordinary": 9516,
  " Ent": 9517,
  " observations": 9518,
  " Czech": 9519,
  " banned": 9520,
  " vessel": 9521,
  "Cost": 9522,
  "ION": 9523,
  " elder": 9524,
  " accomplish": 9525,
  " clubs": 9526,
  " Alberta": 9527,
  " dust": 9528,
  " Belg": 9529,
  " viewed": 9530,
  "iences": 9531,
  "altimore": 9532,
  "acial": 9533,
  " Nord": 9534,
  " influenced": 9535,
  " gardens": 9536,
  "including": 9537,
  " disorders": 9538,
  " tie": 9539,
  " Liberals": 9540,
  "bian": 9541,
  " toys": 9542,
  " legend": 9543,
  " maintaining": 9544,
  " assessment": 9545,
  " wrap": 9546,
  "ovie": 9547,
  " demonstrations": 9548,
  "rene": 9549,
  " Keep": 9550,
  "Se": 9551,
  "bes": 9552,
  "omething": 9553,
  " Therapy": 9554,
  " liberty": 9555,
  " Transform": 9556,
  " chip": 9557,
  " authent": 9558,
  " Gaza": 9559,
  " unfortunately": 9560,
  "opyright": 9561,
  " HTML": 9562,
  "¬": 9563,
  "Version": 9564,
  " Pentagon": 9565,
  " fossil": 9566,
  " writers": 9567,
  " uniform": 9568,
  " ninj": 9569,
  " kil": 9570,
  " Atlanta": 9571,
  " Marine": 9572,
  " methane": 9573,
  " â¢": 9574,
  " Taliban": 9575,
  " spy": 9576,
  "OD": 9577,
  " saving": 9578,
  " forum": 9579,
  " Epstein": 9580,
  " ~": 9581,
  " Vienna": 9582,
  " Weiner": 9583,
  "isol": 9584,
  "Quest": 9585,
  " Verizon": 9586,
  " Vac": 9587,
  " CI": 9588,
  "js": 9589,
  " node": 9590,
  "ioxid": 9591,
  " Novo": 9592,
  " Punisher": 9593,
  "LSL": 9594,
  " Belgian": 9595,
  " striking": 9596,
  "agedy": 9597,
  " tort": 9598,
  " nominee": 9599,
  " beating": 9600,
  "manuel": 9601,
  " Deep": 9602,
  " Town": 9603,
  "hall": 9604,
  "ingers": 9605,
  " accounted": 9606,
  " principal": 9607,
  " dance": 9608,
  " merch": 9609,
  " theme": 9610,
  " shed": 9611,
  " AB": 9612,
  "igent": 9613,
  " cust": 9614,
  " differently": 9615,
  "Today": 9616,
  "uh": 9617,
  "era": 9618,
  " Russians": 9619,
  " sophistic": 9620,
  " Tok": 9621,
  " phenomenon": 9622,
  "elson": 9623,
  "ras": 9624,
  " Did": 9625,
  " resign": 9626,
  " transparent": 9627,
  " swit": 9628,
  " Gre": 9629,
  "Russ": 9630,
  " intense": 9631,
  " scrutiny": 9632,
  " infection": 9633,
  "Each": 9634,
  " CB": 9635,
  "don": 9636,
  " gravity": 9637,
  " aims": 9638,
  " perpet": 9639,
  "(-": 9640,
  " hazard": 9641,
  " badly": 9642,
  "equality": 9643,
  " racism": 9644,
  " falls": 9645,
  "Finally": 9646,
  " succeed": 9647,
  " objective": 9648,
  " interviews": 9649,
  "esy": 9650,
  " dipl": 9651,
  " Bull": 9652,
  "var": 9653,
  " awareness": 9654,
  "alling": 9655,
  " ages": 9656,
  " absence": 9657,
  " oblig": 9658,
  " Iraqi": 9659,
  "edding": 9660,
  " difficulty": 9661,
  "ooded": 9662,
  "itting": 9663,
  " Capitol": 9664,
  "ordon": 9665,
  "rection": 9666,
  "ominator": 9667,
  "anna": 9668,
  " granted": 9669,
  " discovery": 9670,
  " Minimum": 9671,
  " productivity": 9672,
  "inction": 9673,
  " restaurants": 9674,
  "burn": 9675,
  " conce": 9676,
  "appropri": 9677,
  "uating": 9678,
  "making": 9679,
  " economics": 9680,
  "uscript": 9681,
  " Eastern": 9682,
  " drama": 9683,
  " suspicion": 9684,
  "TC": 9685,
  " sho": 9686,
  "gas": 9687,
  " trained": 9688,
  "umber": 9689,
  " Sol": 9690,
  " titled": 9691,
  " Everyone": 9692,
  "Christ": 9693,
  " monitor": 9694,
  "holders": 9695,
  " bene": 9696,
  " refers": 9697,
  "osit": 9698,
  "porting": 9699,
  " token": 9700,
  " raid": 9701,
  " recon": 9702,
  " Oklahoma": 9703,
  " females": 9704,
  " converted": 9705,
  " Sure": 9706,
  " compromise": 9707,
  "uct": 9708,
  " Kerry": 9709,
  "har": 9710,
  " Kal": 9711,
  " defended": 9712,
  "accept": 9713,
  " attracted": 9714,
  " Occ": 9715,
  " Chen": 9716,
  " Arth": 9717,
  "prof": 9718,
  "reli": 9719,
  " diversity": 9720,
  " Coll": 9721,
  "icious": 9722,
  " rolling": 9723,
  " resur": 9724,
  " Luke": 9725,
  " ori": 9726,
  "ILL": 9727,
  " Ba": 9728,
  " innoc": 9729,
  " sustainable": 9730,
  " rebels": 9731,
  "reced": 9732,
  "recedented": 9733,
  " Assad": 9734,
  " certification": 9735,
  " Warner": 9736,
  " abortion": 9737,
  " airline": 9738,
  " possess": 9739,
  " entr": 9740,
  " Polish": 9741,
  "General": 9742,
  "around": 9743,
  " relationships": 9744,
  " Moh": 9745,
  "umping": 9746,
  "sea": 9747,
  " dish": 9748,
  " vegetables": 9749,
  " Store": 9750,
  "aser": 9751,
  " merc": 9752,
  "itchen": 9753,
  " Pony": 9754,
  "elf": 9755,
  "ntil": 9756,
  ".]": 9757,
  "EP": 9758,
  " expanded": 9759,
  "half": 9760,
  " borrow": 9761,
  " execution": 9762,
  " Mong": 9763,
  " layers": 9764,
  " ast": 9765,
  " Amendment": 9766,
  "iffin": 9767,
  " outstanding": 9768,
  " NBA": 9769,
  " existed": 9770,
  "aration": 9771,
  "Per": 9772,
  "guard": 9773,
  " maintenance": 9774,
  " migration": 9775,
  "eq": 9776,
  " Rizzo": 9777,
  "oco": 9778,
  " averaged": 9779,
  " â¬": 9780,
  "Hang": 9781,
  "Dead": 9782,
  "mails": 9783,
  "itial": 9784,
  " headphones": 9785,
  "ortium": 9786,
  " Sarah": 9787,
  "stal": 9788,
  " shapes": 9789,
  " Cut": 9790,
  " punch": 9791,
  " gamers": 9792,
  "agonal": 9793,
  "inks": 9794,
  " transactions": 9795,
  " mast": 9796,
  " poet": 9797,
  "rait": 9798,
  " Romney": 9799,
  " Large": 9800,
  " languages": 9801,
  " router": 9802,
  "heap": 9803,
  " AS": 9804,
  " inhib": 9805,
  "axo": 9806,
  "Tink": 9807,
  "Tinkoff": 9808,
  " Rasm": 9809,
  "ansole": 9810,
  "ansoleil": 9811,
  "DCM": 9812,
  " Tops": 9813,
  " Topsport": 9814,
  " Vla": 9815,
  " Vlaande": 9816,
  " Vlaanderen": 9817,
  " Matoub": 9818,
  " Aurora": 9819,
  " Varanasi": 9820,
  "=%": 9821,
  " Î±": 9822,
  "Ï": 9823,
  " Congrat": 9824,
  " deemed": 9825,
  " vital": 9826,
  " ignore": 9827,
  " Young": 9828,
  " popularity": 9829,
  " featuring": 9830,
  " strongest": 9831,
  " incor": 9832,
  " musical": 9833,
  "plo": 9834,
  " occasionally": 9835,
  " everywhere": 9836,
  " Ice": 9837,
  " Magic": 9838,
  " env": 9839,
  "orious": 9840,
  "lements": 9841,
  " nonprofit": 9842,
  " drove": 9843,
  " staying": 9844,
  "iro": 9845,
  " Vice": 9846,
  " Ins": 9847,
  " strategic": 9848,
  " prepare": 9849,
  "sized": 9850,
  " kit": 9851,
  " quoted": 9852,
  " Check": 9853,
  "track": 9854,
  " automatically": 9855,
  " solutions": 9856,
  " broader": 9857,
  " Take": 9858,
  "cribe": 9859,
  " testimony": 9860,
  " cabinet": 9861,
  " illegally": 9862,
  " Ext": 9863,
  " Mobile": 9864,
  "athy": 9865,
  " weigh": 9866,
  " sear": 9867,
  "Mus": 9868,
  " anonymous": 9869,
  " Kill": 9870,
  " secular": 9871,
  "~$": 9872,
  " Using": 9873,
  " insert": 9874,
  "this": 9875,
  " recovery": 9876,
  " printing": 9877,
  " rejected": 9878,
  " Dog": 9879,
  " awk": 9880,
  " awkward": 9881,
  "vard": 9882,
  "arsh": 9883,
  " negotiations": 9884,
  "â¦\n\n": 9885,
  " nerv": 9886,
  "ashing": 9887,
  " Alger": 9888,
  "uis": 9889,
  "breaking": 9890,
  " arc": 9891,
  " Where": 9892,
  "gate": 9893,
  "rank": 9894,
  "dered": 9895,
  " Barb": 9896,
  " Pas": 9897,
  " Corps": 9898,
  "elve": 9899,
  " globe": 9900,
  "bott": 9901,
  " fu": 9902,
  " cow": 9903,
  "haw": 9904,
  " Wal": 9905,
  " abandoned": 9906,
  " criteria": 9907,
  "rimin": 9908,
  " notable": 9909,
  " Rather": 9910,
  " Wascher": 9911,
  " researcher": 9912,
  " synt": 9913,
  "iguous": 9914,
  " Ur": 9915,
  "David": 9916,
  " History": 9917,
  " representing": 9918,
  "ammed": 9919,
  " informed": 9920,
  " filling": 9921,
  " fulf": 9922,
  " Fact": 9923,
  " Heart": 9924,
  " commonly": 9925,
  "being": 9926,
  " cameras": 9927,
  " brut": 9928,
  " outrage": 9929,
  " counts": 9930,
  "oni": 9931,
  " beneath": 9932,
  " competing": 9933,
  "iversal": 9934,
  " assumed": 9935,
  " annoy": 9936,
  " checks": 9937,
  "ptions": 9938,
  " Devils": 9939,
  " surge": 9940,
  " assumption": 9941,
  " treatments": 9942,
  " effectiveness": 9943,
  " principle": 9944,
  " lobb": 9945,
  "nik": 9946,
  " Academy": 9947,
  " Transport": 9948,
  " remarks": 9949,
  "Getty": 9950,
  " hoped": 9951,
  " tower": 9952,
  " Mill": 9953,
  "claim": 9954,
  "pot": 9955,
  "appy": 9956,
  " portray": 9957,
  " coinc": 9958,
  " Roman": 9959,
  " comedy": 9960,
  " oxygen": 9961,
  " fel": 9962,
  " producer": 9963,
  " Campbell": 9964,
  " boom": 9965,
  " remem": 9966,
  "deg": 9967,
  "yard": 9968,
  "....": 9969,
  " Dakota": 9970,
  "DB": 9971,
  "kell": 9972,
  " sevent": 9973,
  "hem": 9974,
  "oding": 9975,
  " finger": 9976,
  "Post": 9977,
  " spokesperson": 9978,
  "gender": 9979,
  " Dawn": 9980,
  "ye": 9981,
  " tea": 9982,
  "lessness": 9983,
  " Conn": 9984,
  "HL": 9985,
  " Sche": 9986,
  " belt": 9987,
  " coaching": 9988,
  " span": 9989,
  " Special": 9990,
  "asis": 9991,
  " Gulf": 9992,
  " resistance": 9993,
  " relation": 9994,
  " Davies": 9995,
  " Express": 9996,
  "etails": 9997,
  " Eag": 9998,
  " Baltimore": 9999
}